{
  "version": "1.0",
  "truncation": null,
  "padding": null,
  "added_tokens": [
    {
      "id": 0,
      "content": "[PAD]",
      "single_word": false,
      "lstrip": false,
      "rstrip": false,
      "normalized": false,
      "special": true
    },
    {
      "id": 1,
      "content": "[UNK]",
      "single_word": false,
      "lstrip": false,
      "rstrip": false,
      "normalized": false,
      "special": true
    },
    {
      "id": 2,
      "content": "[BOS]",
      "single_word": false,
      "lstrip": false,
      "rstrip": false,
      "normalized": false,
      "special": true
    },
    {
      "id": 3,
      "content": "[EOS]",
      "single_word": false,
      "lstrip": false,
      "rstrip": false,
      "normalized": false,
      "special": true
    }
  ],
  "normalizer": {
    "type": "Sequence",
    "normalizers": [
      {
        "type": "NFD"
      },
      {
        "type": "Lowercase"
      },
      {
        "type": "StripAccents"
      }
    ]
  },
  "pre_tokenizer": {
    "type": "ByteLevel",
    "add_prefix_space": true,
    "trim_offsets": true,
    "use_regex": true
  },
  "post_processor": null,
  "decoder": {
    "type": "ByteLevel",
    "add_prefix_space": true,
    "trim_offsets": true,
    "use_regex": true
  },
  "model": {
    "type": "BPE",
    "dropout": null,
    "unk_token": "[UNK]",
    "continuing_subword_prefix": null,
    "end_of_word_suffix": null,
    "fuse_unk": false,
    "byte_fallback": false,
    "ignore_merges": false,
    "vocab": {
      "[PAD]": 0,
      "[UNK]": 1,
      "[BOS]": 2,
      "[EOS]": 3,
      "!": 4,
      "\"": 5,
      "#": 6,
      "$": 7,
      "%": 8,
      "&": 9,
      "'": 10,
      "(": 11,
      ")": 12,
      "*": 13,
      "+": 14,
      ",": 15,
      "-": 16,
      ".": 17,
      "/": 18,
      "0": 19,
      "1": 20,
      "2": 21,
      "3": 22,
      "4": 23,
      "5": 24,
      "6": 25,
      "7": 26,
      "8": 27,
      "9": 28,
      ":": 29,
      ";": 30,
      "<": 31,
      "=": 32,
      ">": 33,
      "?": 34,
      "@": 35,
      "[": 36,
      "\\": 37,
      "]": 38,
      "_": 39,
      "`": 40,
      "a": 41,
      "b": 42,
      "c": 43,
      "d": 44,
      "e": 45,
      "f": 46,
      "g": 47,
      "h": 48,
      "i": 49,
      "j": 50,
      "k": 51,
      "l": 52,
      "m": 53,
      "n": 54,
      "o": 55,
      "p": 56,
      "q": 57,
      "r": 58,
      "s": 59,
      "t": 60,
      "u": 61,
      "v": 62,
      "w": 63,
      "x": 64,
      "y": 65,
      "z": 66,
      "{": 67,
      "|": 68,
      "}": 69,
      "~": 70,
      "¡": 71,
      "¢": 72,
      "£": 73,
      "¤": 74,
      "¥": 75,
      "¦": 76,
      "§": 77,
      "¨": 78,
      "©": 79,
      "ª": 80,
      "«": 81,
      "¬": 82,
      "®": 83,
      "¯": 84,
      "°": 85,
      "±": 86,
      "²": 87,
      "³": 88,
      "´": 89,
      "µ": 90,
      "¶": 91,
      "·": 92,
      "¸": 93,
      "¹": 94,
      "º": 95,
      "»": 96,
      "¼": 97,
      "½": 98,
      "¾": 99,
      "¿": 100,
      "Â": 101,
      "Ã": 102,
      "Å": 103,
      "Æ": 104,
      "Ë": 105,
      "â": 106,
      "ĉ": 107,
      "Ċ": 108,
      "č": 109,
      "Ġ": 110,
      "Ģ": 111,
      "Ĥ": 112,
      "Ħ": 113,
      "Ĩ": 114,
      "Ĵ": 115,
      "ĵ": 116,
      "ĺ": 117,
      "Ļ": 118,
      "ļ": 119,
      "ľ": 120,
      "Ŀ": 121,
      "ŀ": 122,
      "ł": 123,
      "Ń": 124,
      "Ġt": 125,
      "he": 126,
      "Ġa": 127,
      "Ġs": 128,
      "Ġthe": 129,
      "Ġw": 130,
      "nd": 131,
      "čĊ": 132,
      "ed": 133,
      "Ġb": 134,
      "Ġand": 135,
      "Ġto": 136,
      "in": 137,
      "Ġh": 138,
      "Ġhe": 139,
      "it": 140,
      "Ġl": 141,
      "Ġwa": 142,
      "Ġf": 143,
      "re": 144,
      "ou": 145,
      "Ġm": 146,
      "Ġo": 147,
      "Ġc": 148,
      "Ġd": 149,
      "ĠčĊ": 150,
      "er": 151,
      "Ġp": 152,
      "Ġwas": 153,
      "Ġsa": 154,
      "is": 155,
      "ing": 156,
      "om": 157,
      "Ġg": 158,
      "Ġshe": 159,
      "ar": 160,
      "il": 161,
      "id": 162,
      "ay": 163,
      "Ġit": 164,
      "at": 165,
      "Ġn": 166,
      "Ġthey": 167,
      "en": 168,
      "Ġha": 169,
      "an": 170,
      "Ġon": 171,
      "im": 172,
      "or": 173,
      "Ġth": 174,
      "on": 175,
      "le": 176,
      "ll": 177,
      "Ġher": 178,
      "Ġ\"": 179,
      "ot": 180,
      "ir": 181,
      "et": 182,
      "Ġe": 183,
      "Ġy": 184,
      "es": 185,
      "Ġin": 186,
      "ver": 187,
      "ow": 188,
      "ut": 189,
      "ck": 190,
      "Ġu": 191,
      "Ġyou": 192,
      "ld": 193,
      "oo": 194,
      "Ġsaid": 195,
      "Ġr": 196,
      "Ġbe": 197,
      "ig": 198,
      "ily": 199,
      "Ġst": 200,
      "Ġso": 201,
      "Ġtim": 202,
      "ce": 203,
      "ke": 204,
      "ve": 205,
      "pp": 206,
      "Ġwit": 207,
      "Ġhis": 208,
      "Ġwith": 209,
      "Ġmom": 210,
      "Ġlily": 211,
      "Ġof": 212,
      "ked": 213,
      "Ġfr": 214,
      "nt": 215,
      "Ġpl": 216,
      "am": 217,
      "ad": 218,
      "very": 219,
      "Ġthat": 220,
      "Ġday": 221,
      "Ġj": 222,
      "Ġwe": 223,
      "Ġbut": 224,
      "Ġup": 225,
      "st": 226,
      "ie": 227,
      "Ġplay": 228,
      "Ġhad": 229,
      "Ġfor": 230,
      "un": 231,
      "el": 232,
      "my": 233,
      "ould": 234,
      "'s": 235,
      "Ġan": 236,
      "Ġli": 237,
      "ra": 238,
      "ch": 239,
      "ent": 240,
      "Ġhapp": 241,
      "Ġone": 242,
      "Ġwant": 243,
      "Ġsh": 244,
      "itt": 245,
      "Ġdo": 246,
      "Ġi": 247,
      "out": 248,
      "Ġwh": 249,
      "her": 250,
      "Ġk": 251,
      "Ġnot": 252,
      "ly": 253,
      "se": 254,
      "ome": 255,
      "Ġthere": 256,
      "Ġvery": 257,
      "ound": 258,
      "Ġas": 259,
      "Ġba": 260,
      "ittle": 261,
      "Ġlittle": 262,
      "Ġne": 263,
      "Ġtime": 264,
      "al": 265,
      "Ġre": 266,
      "ht": 267,
      "Ġsm": 268,
      "Ġma": 269,
      "Ġhappy": 270,
      "Ġbig": 271,
      "Ġis": 272,
      "Ġsaw": 273,
      "iend": 274,
      "Ġfriend": 275,
      ".\"": 276,
      "ry": 277,
      "Ġbo": 278,
      "ide": 279,
      "'t": 280,
      "Ġloo": 281,
      "!\"": 282,
      "ug": 283,
      "ter": 284,
      "ved": 285,
      "Ġwere": 286,
      "Ġlo": 287,
      "Ġonce": 288,
      "ore": 289,
      "Ġse": 290,
      "Ġgo": 291,
      "Ġsp": 292,
      "ur": 293,
      "Ġhim": 294,
      "Ġtoo": 295,
      "Ġca": 296,
      "Ġat": 297,
      "Ġare": 298,
      "irl": 299,
      "Ġtom": 300,
      "ard": 301,
      "Ġwanted": 302,
      "ill": 303,
      "Ġgirl": 304,
      "Ġupon": 305,
      "Ġtheir": 306,
      "Ġout": 307,
      "Ġben": 308,
      "Ġthem": 309,
      "Ġwhe": 310,
      "ec": 311,
      "ys": 312,
      "fu": 313,
      "way": 314,
      "Ġsmil": 315,
      "Ġdid": 316,
      "ind": 317,
      "Ġcould": 318,
      "Ġcan": 319,
      "Ġhave": 320,
      "ri": 321,
      "ain": 322,
      "Ġex": 323,
      "art": 324,
      "hed": 325,
      "Ġall": 326,
      "Ġar": 327,
      "Ġwent": 328,
      "lp": 329,
      "ic": 330,
      "Ġwhen": 331,
      "Ġta": 332,
      "ful": 333,
      "ood": 334,
      "?\"": 335,
      "Ġfriends": 336,
      "hing": 337,
      "Ġnam": 338,
      "Ġhelp": 339,
      "ight": 340,
      "Ġkn": 341,
      "Ġsu": 342,
      "one": 343,
      "um": 344,
      "Ġle": 345,
      "Ġback": 346,
      "ark": 347,
      "Ġcl": 348,
      "Ġno": 349,
      "Ġfrom": 350,
      "Ġfun": 351,
      "Ġal": 352,
      "Ġthen": 353,
      "all": 354,
      "Ġro": 355,
      "Ġtimmy": 356,
      "Ġevery": 357,
      "Ġsc": 358,
      "Ġsmiled": 359,
      "Ġnamed": 360,
      "oug": 361,
      "Ġloved": 362,
      "side": 363,
      "Ġman": 364,
      "elt": 365,
      "Ġasked": 366,
      "Ġsome": 367,
      "ick": 368,
      "Ġlike": 369,
      "Ġfe": 370,
      "op": 371,
      "Ġfelt": 372,
      "Ġme": 373,
      "Ġsee": 374,
      "Ġlooked": 375,
      "Ġbr": 376,
      "Ġaround": 377,
      "ame": 378,
      "omet": 379,
      "Ġwhat": 380,
      "Ġbir": 381,
      "Ġwould": 382,
      "get": 383,
      "Ġsomet": 384,
      "Ġstart": 385,
      "Ġfa": 386,
      "ong": 387,
      "Ġboy": 388,
      "âĤ": 389,
      "âĤ¬": 390,
      "ss": 391,
      "Ġbird": 392,
      "Ġpr": 393,
      "dd": 394,
      "ings": 395,
      "Ġag": 396,
      "Ġwor": 397,
      "Ġjo": 398,
      "ade": 399,
      "Ġmake": 400,
      "king": 401,
      ",\"": 402,
      "own": 403,
      "Ġtre": 404,
      "Ġran": 405,
      "gether": 406,
      "Ġtogether": 407,
      "Ġaway": 408,
      "Ġla": 409,
      "ared": 410,
      "Ġsays": 411,
      "Ġstarted": 412,
      "Ġdad": 413,
      "ice": 414,
      "oud": 415,
      "Ġcar": 416,
      "Ġsomething": 417,
      "Ġmade": 418,
      "na": 419,
      "Ġmommy": 420,
      "Ġco": 421,
      "Ġfl": 422,
      "ited": 423,
      "Ġot": 424,
      "Ġpark": 425,
      "Ġsad": 426,
      "ure": 427,
      "Ġother": 428,
      "Ġnew": 429,
      "Ġexc": 430,
      "Ġch": 431,
      "Ġput": 432,
      "th": 433,
      "Ġhug": 434,
      "Ġmu": 435,
      "ble": 436,
      "Ġagain": 437,
      "Ġgood": 438,
      "Ġhome": 439,
      "Ġwho": 440,
      "ook": 441,
      "ep": 442,
      "Ġwal": 443,
      "Ġfound": 444,
      "est": 445,
      "Ġsam": 446,
      "Ġdec": 447,
      "pped": 448,
      "ried": 449,
      "qu": 450,
      "ack": 451,
      "Ġget": 452,
      "ach": 453,
      "Ġplaying": 454,
      "ought": 455,
      "pl": 456,
      "Ġgra": 457,
      "Ġsw": 458,
      "ous": 459,
      "Ġthings": 460,
      "Ġexcited": 461,
      "Ġbl": 462,
      "Ġliked": 463,
      "Ġgot": 464,
      "ny": 465,
      "uck": 466,
      "Ġthan": 467,
      "ge": 468,
      "Ġyour": 469,
      "ided": 470,
      "Ġdecided": 471,
      "Ġcame": 472,
      "Ġv": 473,
      "Ġdog": 474,
      "Ġscared": 475,
      "ust": 476,
      "Ġdown": 477,
      "ouse": 478,
      "Ġfind": 479,
      "Ġab": 480,
      "Ġcare": 481,
      "Ġpa": 482,
      "Ġbec": 483,
      "ell": 484,
      "fe": 485,
      "Ġfeel": 486,
      "ist": 487,
      "Ġgr": 488,
      "Ġpo": 489,
      "Ġlook": 490,
      "Ġmy": 491,
      "Ġwill": 492,
      "our": 493,
      "as": 494,
      "Ġsara": 495,
      "Ġke": 496,
      "ave": 497,
      "Ġanna": 498,
      "arn": 499,
      "Ġbu": 500,
      "nder": 501,
      "Ġmax": 502,
      "ways": 503,
      "ess": 504,
      "Ġalways": 505,
      "Ġmo": 506,
      "Ġtook": 507,
      "Ġabout": 508,
      "Ġlot": 509,
      "Ġtoys": 510,
      "Ġkne": 511,
      "Ġdidn": 512,
      "ers": 513,
      "yes": 514,
      "ant": 515,
      "ged": 516,
      "ise": 517,
      "bb": 518,
      "Ġoutside": 519,
      "Ġtree": 520,
      "ite": 521,
      "ally": 522,
      "Ġthought": 523,
      "Ġho": 524,
      "Ġball": 525,
      "Ġaf": 526,
      "Ġmore": 527,
      "eci": 528,
      "Ġthis": 529,
      "ened": 530,
      "ched": 531,
      "Ġold": 532,
      "Ġlearn": 533,
      "ret": 534,
      "Ġhow": 535,
      "Ġint": 536,
      "Ġpu": 537,
      "Ġtw": 538,
      "Ġknow": 539,
      "Ġcat": 540,
      "Ġsor": 541,
      "Ġtake": 542,
      "Ġlaug": 543,
      "Ġpe": 544,
      "Ġspeci": 545,
      "Ġspecial": 546,
      "Ġlet": 547,
      "Ġmi": 548,
      "dden": 549,
      "Ġsudden": 550,
      "Ġinside": 551,
      "Ġknew": 552,
      "ive": 553,
      "ro": 554,
      "ma": 555,
      "Ġany": 556,
      "Ġsuddenly": 557,
      "Ġjack": 558,
      "Ġtoy": 559,
      "Ġafter": 560,
      "Ġjust": 561,
      "Ġtr": 562,
      "Ġshow": 563,
      "ink": 564,
      "lly": 565,
      "Ġsorry": 566,
      "Ġra": 567,
      "Ġmuch": 568,
      "Ġsl": 569,
      "Ġrun": 570,
      "ish": 571,
      "Ġor": 572,
      "Ġhand": 573,
      "Ġif": 574,
      "Ġhouse": 575,
      "ven": 576,
      "Ġsun": 577,
      "Ġop": 578,
      "Ġsk": 579,
      "Ġclo": 580,
      "by": 581,
      "Ġqu": 582,
      "Ġinto": 583,
      "Ġtried": 584,
      "Ġwater": 585,
      "Ġen": 586,
      "ate": 587,
      "Ġfin": 588,
      "Ġtold": 589,
      "ft": 590,
      "Ġeach": 591,
      "Ġproud": 592,
      "ump": 593,
      "Ġover": 594,
      "Ġgave": 595,
      "Ġheard": 596,
      "dy": 597,
      "Ġnever": 598,
      "au": 599,
      "Ġroom": 600,
      "Ġeat": 601,
      "Ġexpl": 602,
      "ty": 603,
      "other": 604,
      "Ġpick": 605,
      "Ġpret": 606,
      "lled": 607,
      "Ġcouldn": 608,
      "ion": 609,
      "Ġplayed": 610,
      "Ġgre": 611,
      "Ġsha": 612,
      "ause": 613,
      "Ġmia": 614,
      "Ġhugged": 615,
      "ious": 616,
      "Ġwat": 617,
      "Ġoff": 618,
      "Ġbear": 619,
      "Ġcom": 620,
      "oth": 621,
      "Ġnice": 622,
      "Ġbox": 623,
      "Ġbecause": 624,
      "Ġfo": 625,
      "'m": 626,
      "Ġstr": 627,
      "Ġneed": 628,
      "Ġbet": 629,
      "Ġmany": 630,
      "ue": 631,
      "ile": 632,
      "Ġdon": 633,
      "Ġsmall": 634,
      "urt": 635,
      "Ġlong": 636,
      "ving": 637,
      "kes": 638,
      "sed": 639,
      "gry": 640,
      "imal": 641,
      "Ġanimal": 642,
      "ct": 643,
      "Ġnow": 644,
      "ank": 645,
      "Ġend": 646,
      "ort": 647,
      "ough": 648,
      "Ġtry": 649,
      "Ġunt": 650,
      "cy": 651,
      "Ġcome": 652,
      "ild": 653,
      "Ġuntil": 654,
      "Ġeven": 655,
      "elf": 656,
      "iz": 657,
      "wh": 658,
      "Ġsoon": 659,
      "Ġim": 660,
      "Ġkind": 661,
      "Ġlearned": 662,
      "Ġbea": 663,
      "Ġlove": 664,
      "Ġeveryone": 665,
      "Ġad": 666,
      "Ġbetter": 667,
      "Ġflow": 668,
      "ine": 669,
      "let": 670,
      "Ġbest": 671,
      "pt": 672,
      "vent": 673,
      "Ġte": 674,
      "urp": 675,
      "ady": 676,
      "ars": 677,
      "Ġsay": 678,
      "rent": 679,
      "ream": 680,
      "Ġspot": 681,
      "urn": 682,
      "Ġcle": 683,
      "Ġcol": 684,
      "ace": 685,
      "ves": 686,
      "Ġby": 687,
      "Åĵ": 688,
      "arden": 689,
      "Ġgarden": 690,
      "Ġfast": 691,
      "Ġfi": 692,
      "Ġcareful": 693,
      "ber": 694,
      "Ġbeaut": 695,
      "Ġche": 696,
      "ies": 697,
      "Ġbra": 698,
      "Ġthanked": 699,
      "Ġsky": 700,
      "Ġlaughed": 701,
      "Ġjump": 702,
      "Ġgl": 703,
      "Ġloud": 704,
      "be": 705,
      "iny": 706,
      "Ġlist": 707,
      "wn": 708,
      "Ġbeauti": 709,
      "Ġwo": 710,
      "lew": 711,
      "Ġlots": 712,
      "Ġbeautiful": 713,
      "Ġhard": 714,
      "self": 715,
      "Ġstill": 716,
      "Ġanimals": 717,
      "Ġfam": 718,
      "sh": 719,
      "Ġunder": 720,
      "hn": 721,
      "Ġhurt": 722,
      "Ġstay": 723,
      "Ġlu": 724,
      "Ġboth": 725,
      "if": 726,
      "ning": 727,
      "Ġjohn": 728,
      "Ġdan": 729,
      "ree": 730,
      "you": 731,
      "Ġmum": 732,
      "Ġway": 733,
      "cks": 734,
      "hes": 735,
      "Ġtwo": 736,
      "Ġsafe": 737,
      "ool": 738,
      "Ġrem": 739,
      "Ġbad": 740,
      "ase": 741,
      "Ġits": 742,
      "Ġred": 743,
      "Ġbook": 744,
      "Ġimp": 745,
      "em": 746,
      "ane": 747,
      "ople": 748,
      "ok": 749,
      "Ġlived": 750,
      "Ġpeople": 751,
      "Ġwalked": 752,
      "Ġbrave": 753,
      "Ġshould": 754,
      "urpr": 755,
      "Ġlucy": 756,
      "Ġsurpr": 757,
      "ished": 758,
      "Ġangry": 759,
      "Ġfamily": 760,
      "ress": 761,
      "igh": 762,
      "Ġflew": 763,
      "Ġcalled": 764,
      "Ġstor": 765,
      "ip": 766,
      "no": 767,
      "led": 768,
      "Ġfore": 769,
      "Ġkept": 770,
      "fore": 771,
      "Ġshare": 772,
      "Ġfly": 773,
      "Ġbefore": 774,
      "ger": 775,
      "Ġwhile": 776,
      "xt": 777,
      "ised": 778,
      "dded": 779,
      "Ġpic": 780,
      "âĤ¬â": 781,
      "Ġdoor": 782,
      "Ġgoing": 783,
      "Ġkeep": 784,
      "ied": 785,
      "Ġpretty": 786,
      "Ġok": 787,
      "Ġclean": 788,
      "Ġdra": 789,
      "Ġadvent": 790,
      "ary": 791,
      "Ġnoise": 792,
      "Ġcon": 793,
      "Ġopened": 794,
      "Ġnext": 795,
      "Ġshiny": 796,
      "Ġdoll": 797,
      "Ġwind": 798,
      "Ġcry": 799,
      "Ġexplore": 800,
      "Ġun": 801,
      "so": 802,
      "Ġide": 803,
      "Ġreal": 804,
      "illy": 805,
      "ect": 806,
      "Ġsto": 807,
      "Ġfar": 808,
      "what": 809,
      "Ġgrand": 810,
      "Ġground": 811,
      "Ġturn": 812,
      "Ġalso": 813,
      "les": 814,
      "Ħ¢": 815,
      "âĤ¬âĦ¢": 816,
      "and": 817,
      "Ġidea": 818,
      "here": 819,
      "ap": 820,
      "Ġsn": 821,
      "Ġnodded": 822,
      "Ġcolor": 823,
      "Ġfeeling": 824,
      "Ġwar": 825,
      "Ġgive": 826,
      "end": 827,
      "Ġblue": 828,
      "Ġpicked": 829,
      "imb": 830,
      "Ġwalking": 831,
      "Ġclos": 832,
      "Ġbob": 833,
      "thing": 834,
      "jo": 835,
      "we": 836,
      "Ġclimb": 837,
      "Ġthr": 838,
      "Ġhas": 839,
      "Ġadventure": 840,
      "Ġbed": 841,
      "thank": 842,
      "Ġsmile": 843,
      "that": 844,
      "eet": 845,
      "Ġbeing": 846,
      "aybe": 847,
      "Ġfinally": 848,
      "iced": 849,
      "ak": 850,
      "Ġda": 851,
      "Ġdif": 852,
      "ture": 853,
      "Ġwr": 854,
      "Ġfood": 855,
      "joy": 856,
      "Ġpicture": 857,
      "Ġthink": 858,
      "Ġlooking": 859,
      "Ġdel": 860,
      "Ġwait": 861,
      "Ġlisten": 862,
      "Ġtruck": 863,
      "Ġtra": 864,
      "Ġtow": 865,
      "Ġeyes": 866,
      "ught": 867,
      "Ġrepl": 868,
      "Ġgi": 869,
      "Ġstopped": 870,
      "ting": 871,
      "Ġvo": 872,
      "Ġbre": 873,
      "per": 874,
      "Ġru": 875,
      "Ġremem": 876,
      "Ġown": 877,
      "Ġwalk": 878,
      "Ġem": 879,
      "ff": 880,
      "bye": 881,
      "Ġwonder": 882,
      "Ġgreat": 883,
      "Ġenjoy": 884,
      "able": 885,
      "Ġhands": 886,
      "Ġever": 887,
      "age": 888,
      "Ġde": 889,
      "Ġshout": 890,
      "Ġcur": 891,
      "Ġhead": 892,
      "Ġflowers": 893,
      "Ġimport": 894,
      "og": 895,
      "Ġquick": 896,
      "Ġsue": 897,
      "Ġforest": 898,
      "Ġnoticed": 899,
      "bbit": 900,
      "Ġz": 901,
      "Ġapp": 902,
      "Ġremember": 903,
      "Ġnear": 904,
      "ized": 905,
      "Ġdis": 906,
      "ac": 907,
      "irst": 908,
      "Ġrabbit": 909,
      "Ġwhere": 910,
      "Ġfish": 911,
      "llow": 912,
      "Ġwatch": 913,
      "Ġimportant": 914,
      "Ġama": 915,
      "Ġtal": 916,
      "Ġus": 917,
      "Ġac": 918,
      "Ġsound": 919,
      "Ġrain": 920,
      "Ġslide": 921,
      "Ġreplied": 922,
      "Ġamaz": 923,
      "Ġblo": 924,
      "Ġokay": 925,
      "Ġwork": 926,
      "lease": 927,
      "Ġbun": 928,
      "Ġmor": 929,
      "Ġsqu": 930,
      "Ġrock": 931,
      "Ġshowed": 932,
      "Ġmean": 933,
      "Ġtou": 934,
      "ted": 935,
      "gan": 936,
      "Ġfollow": 937,
      "Ġask": 938,
      "Ġright": 939,
      "bbed": 940,
      "Ġdiffe": 941,
      "Ġsarah": 942,
      "Ġye": 943,
      "Ġmag": 944,
      "Ġthank": 945,
      "Ġbright": 946,
      "day": 947,
      "Ġwatched": 948,
      "Ġsure": 949,
      "Ġstrong": 950,
      "Ġhop": 951,
      "Ġour": 952,
      "Ġuse": 953,
      "Ġstick": 954,
      "Ġquickly": 955,
      "Ġbeen": 956,
      "Ġhere": 957,
      "Ġam": 958,
      "Ġvoice": 959,
      "Ġyell": 960,
      "ath": 961,
      "Ġgoodbye": 962,
      "Ġdifferent": 963,
      "Ġjane": 964,
      "Ġchild": 965,
      "Ġboat": 966,
      "llo": 967,
      "ummy": 968,
      "Ġdaddy": 969,
      "Ġbecame": 970,
      "Ġface": 971,
      "Ġplace": 972,
      "can": 973,
      "Ġfirst": 974,
      "ag": 975,
      "co": 976,
      "ange": 977,
      "look": 978,
      "Ġhigh": 979,
      "ng": 980,
      "Ġstore": 981,
      "Ġcloser": 982,
      "Ġdoes": 983,
      "where": 984,
      "Ġcurious": 985,
      "Ġwarm": 986,
      "Ġbel": 987,
      "Ġdress": 988,
      "Ġsand": 989,
      "Ġcook": 990,
      "ila": 991,
      "Ġjoe": 992,
      "Ġforg": 993,
      "Ġtell": 994,
      "Ġwhy": 995,
      "oon": 996,
      "Ġfav": 997,
      "Ġthree": 998,
      "ount": 999,
      "che": 1000,
      "leep": 1001,
      "Ġopen": 1002,
      "Ġnight": 1003,
      "Ġcake": 1004,
      "Ġlea": 1005,
      "Ġgrandma": 1006,
      "more": 1007,
      "Ġanymore": 1008,
      "Ġpie": 1009,
      "Ġlila": 1010,
      "Ġbunny": 1011,
      "Ġbutter": 1012,
      "iss": 1013,
      "ached": 1014,
      "Ġmon": 1015,
      "Ġflo": 1016,
      "ired": 1017,
      "Ġsweet": 1018,
      "ull": 1019,
      "Ġkit": 1020,
      "orn": 1021,
      "Ġkid": 1022,
      "Ġpain": 1023,
      "Ġonly": 1024,
      "Ġgrabbed": 1025,
      "Ġduck": 1026,
      "isy": 1027,
      "Ġstop": 1028,
      "Ġfell": 1029,
      "ered": 1030,
      "Ġbirds": 1031,
      "Ġcont": 1032,
      "Ġjumped": 1033,
      "Ġfire": 1034,
      "Ġglad": 1035,
      "Ġbit": 1036,
      "chen": 1037,
      "Ġpet": 1038,
      "Ġkitchen": 1039,
      "Ġper": 1040,
      "Ġcra": 1041,
      "Ġhelped": 1042,
      "Ġsees": 1043,
      "Ġdr": 1044,
      "Ġsing": 1045,
      "Ġhappened": 1046,
      "Ġprin": 1047,
      "Ġgrass": 1048,
      "Ġtri": 1049,
      "Ġshouted": 1050,
      "Ġstory": 1051,
      "Ġsna": 1052,
      "Ġbeh": 1053,
      "ul": 1054,
      "Ġbrother": 1055,
      "Ġyummy": 1056,
      "Ġreached": 1057,
      "Ġcr": 1058,
      "Ġrealized": 1059,
      "mom": 1060,
      "Ġlady": 1061,
      "Ġtommy": 1062,
      "Ġste": 1063,
      "Ġhaving": 1064,
      "Ġsho": 1065,
      "Ġplease": 1066,
      "sp": 1067,
      "ins": 1068,
      "bo": 1069,
      "Ġfavor": 1070,
      "Ġthrough": 1071,
      "'re": 1072,
      "ster": 1073,
      "Ġmess": 1074,
      "Ġdraw": 1075,
      "Ġrest": 1076,
      "Ġfavorite": 1077,
      "Ġhat": 1078,
      "Ġcre": 1079,
      "Ġgame": 1080,
      "ppy": 1081,
      "Ġate": 1082,
      "Ġless": 1083,
      "Ġsoft": 1084,
      "Ġunderst": 1085,
      "Ġready": 1086,
      "Ġparent": 1087,
      "zy": 1088,
      "Ġthing": 1089,
      "Ġreally": 1090,
      "imes": 1091,
      "ather": 1092,
      "Ġcu": 1093,
      "Ġbegan": 1094,
      "Ġpretend": 1095,
      "Ġworld": 1096,
      "Ġmagic": 1097,
      "Ġlooks": 1098,
      "Ġhimself": 1099,
      "Ġbutterf": 1100,
      "fully": 1101,
      "Ġdone": 1102,
      "Ġmaking": 1103,
      "Ġcut": 1104,
      "Ġcoming": 1105,
      "Ġmouse": 1106,
      "Ġkids": 1107,
      "Ġpond": 1108,
      "Ġwaved": 1109,
      "Ġprom": 1110,
      "Ġtired": 1111,
      "Ġfix": 1112,
      "Ġted": 1113,
      "Ġworry": 1114,
      "Ġcars": 1115,
      "Ġpart": 1116,
      "ren": 1117,
      "ces": 1118,
      "Ġdelic": 1119,
      "ign": 1120,
      "Ġname": 1121,
      "Ġflower": 1122,
      "ely": 1123,
      "Ġfill": 1124,
      "wow": 1125,
      "ater": 1126,
      "Ġsometimes": 1127,
      "air": 1128,
      "Ġtouch": 1129,
      "Ġmaybe": 1130,
      "cked": 1131,
      "Ġfunny": 1132,
      "Ġcatch": 1133,
      "Ġanother": 1134,
      "Ġhold": 1135,
      "Ġused": 1136,
      "Ġhair": 1137,
      "Ġfarm": 1138,
      "Ġsally": 1139,
      "Ġseen": 1140,
      "Ġtast": 1141,
      "Ġtop": 1142,
      "ient": 1143,
      "rel": 1144,
      "Ġparents": 1145,
      "Ġdoing": 1146,
      "Ġhopped": 1147,
      "Ġcried": 1148,
      "Ġgreen": 1149,
      "iver": 1150,
      "oney": 1151,
      "Ġblocks": 1152,
      "Ġdaisy": 1153,
      "Ġcool": 1154,
      "Ġlight": 1155,
      "\".": 1156,
      "Ġcla": 1157,
      "Ġdin": 1158,
      "Ġsurprise": 1159,
      "Ġlesson": 1160,
      "Ġread": 1161,
      "ation": 1162,
      "pe": 1163,
      "don": 1164,
      "Ġfloor": 1165,
      "Ġwood": 1166,
      "Ġdri": 1167,
      "Ġsnow": 1168,
      "Ġyears": 1169,
      "Ġbehind": 1170,
      "Ġfrog": 1171,
      "Ġtrees": 1172,
      "ards": 1173,
      "Ġrunning": 1174,
      "Ġfull": 1175,
      "Ġwindow": 1176,
      "Ġworked": 1177,
      "Ġbow": 1178,
      "Ġsat": 1179,
      "Ġdark": 1180,
      "Ġ-": 1181,
      "Ġdro": 1182,
      "Ġslow": 1183,
      "Ġsmell": 1184,
      "Ġyellow": 1185,
      "Ġlikes": 1186,
      "Ġwished": 1187,
      "Ġpaper": 1188,
      "hello": 1189,
      "Ġswim": 1190,
      "ued": 1191,
      "Ġel": 1192,
      "Ġhappily": 1193,
      "come": 1194,
      "Ġbag": 1195,
      "us": 1196,
      "Ġsleep": 1197,
      "Ġsurprised": 1198,
      "Ġpat": 1199,
      "Ġbaby": 1200,
      "aring": 1201,
      "Ġcarefully": 1202,
      "Ġbutterfly": 1203,
      "Ġset": 1204,
      "Ġteddy": 1205,
      "Ġswing": 1206,
      "oke": 1207,
      "Ġice": 1208,
      "Ġremembered": 1209,
      "Ġlost": 1210,
      "Ġjim": 1211,
      "Ġbenny": 1212,
      "Ġcold": 1213,
      "Ġheld": 1214,
      "Ġhole": 1215,
      "rew": 1216,
      "Ġlaugh": 1217,
      "Ġneeded": 1218,
      "Ġperf": 1219,
      "Ġbuy": 1220,
      "ons": 1221,
      "uff": 1222,
      "Ġleft": 1223,
      "Ġmove": 1224,
      "Ġfair": 1225,
      "Ġanything": 1226,
      "Ġdream": 1227,
      "cess": 1228,
      "reed": 1229,
      "Ġmar": 1230,
      "Ġenjoyed": 1231,
      "Ġwrong": 1232,
      "Ġbilly": 1233,
      "Ġarri": 1234,
      "Ġbooks": 1235,
      "Ġhear": 1236,
      "Ġair": 1237,
      "Ġfollowed": 1238,
      "Ġchildren": 1239,
      "Ġbus": 1240,
      "Ġhun": 1241,
      "Ġdelicious": 1242,
      "Ġtable": 1243,
      "Ġmat": 1244,
      "Ġfinished": 1245,
      "Ġfriendly": 1246,
      "Ġcontin": 1247,
      "Ġhot": 1248,
      "Ġdir": 1249,
      "Ġtall": 1250,
      "Ġsomeone": 1251,
      "Ġmolly": 1252,
      "Ġyes": 1253,
      "Ġherself": 1254,
      "ndy": 1255,
      "Ġhill": 1256,
      "ens": 1257,
      "ds": 1258,
      "ross": 1259,
      "Ġunderstand": 1260,
      "Ġclose": 1261,
      "lf": 1262,
      "ined": 1263,
      "Ġmight": 1264,
      "Ġamy": 1265,
      "Ġhid": 1266,
      "Ġeverywhere": 1267,
      "Ġarrived": 1268,
      "Ġcast": 1269,
      "Ġbug": 1270,
      "Ġgent": 1271,
      "Ġarm": 1272,
      "Ġelse": 1273,
      "Ġwonderful": 1274,
      "Ġtight": 1275,
      "Ġforgot": 1276,
      "ield": 1277,
      "Ġrel": 1278,
      "Ġpink": 1279,
      "oken": 1280,
      "Ġsquir": 1281,
      "Ġcolors": 1282,
      "Ġbuild": 1283,
      "Ġbroken": 1284,
      "Ġable": 1285,
      "Ġgone": 1286,
      "ner": 1287,
      "Ġjen": 1288,
      "Ġsong": 1289,
      "Ġfilled": 1290,
      "Ġsquirrel": 1291,
      "Ġgu": 1292,
      "Ġagreed": 1293,
      "Ġeverything": 1294,
      "Ġcreat": 1295,
      "Ġcontinued": 1296,
      "asure": 1297,
      "Ġcount": 1298,
      "ama": 1299,
      "'ll": 1300,
      "room": 1301,
      "Ġwants": 1302,
      "Ġlion": 1303,
      "sk": 1304,
      "Ġleaves": 1305,
      "ich": 1306,
      "Ġlater": 1307,
      "ced": 1308,
      "Ġenough": 1309,
      "Ġju": 1310,
      "Ġmoment": 1311,
      "ast": 1312,
      "Ġmorning": 1313,
      "Ġvis": 1314,
      "Ġjoy": 1315,
      "Ġgetting": 1316,
      "Ġcookies": 1317,
      "Ġfight": 1318,
      "shed": 1319,
      "Ġstayed": 1320,
      "ph": 1321,
      "Ġbreak": 1322,
      "Ġpoin": 1323,
      "Ġbeach": 1324,
      "Ġmother": 1325,
      "ance": 1326,
      "Ġscary": 1327,
      "Ġfew": 1328,
      "Ġdinner": 1329,
      "Ġfall": 1330,
      "Ġhungry": 1331,
      "Ġturned": 1332,
      "Ġspark": 1333,
      "row": 1334,
      "av": 1335,
      "Ġwet": 1336,
      "pa": 1337,
      "gon": 1338,
      "Ġamazing": 1339,
      "Ġcream": 1340,
      "Ġtrying": 1341,
      "Ġmama": 1342,
      "Ġperfect": 1343,
      "Ġmakes": 1344,
      "ries": 1345,
      "Ġcastle": 1346,
      "Ġothers": 1347,
      "oh": 1348,
      "Ġclimbed": 1349,
      "oup": 1350,
      "Ġtoday": 1351,
      "Ġpictures": 1352,
      "Ġpen": 1353,
      "Ġmus": 1354,
      "Ġwhite": 1355,
      "Ġtalk": 1356,
      "Ġmet": 1357,
      "Ġspl": 1358,
      "Ġfox": 1359,
      "ike": 1360,
      "Ġlistened": 1361,
      "Ġsmiles": 1362,
      "man": 1363,
      "Ġballoon": 1364,
      "Ġbrown": 1365,
      "Ġclot": 1366,
      "oring": 1367,
      "Ġwall": 1368,
      "Ġpol": 1369,
      "Ġclothes": 1370,
      "Ġalone": 1371,
      "Ġjill": 1372,
      "Ġpuppy": 1373,
      "ctor": 1374,
      "Ġtail": 1375,
      "ash": 1376,
      "rot": 1377,
      "ated": 1378,
      "amp": 1379,
      "ence": 1380,
      "Ġdeep": 1381,
      "Ġbrought": 1382,
      "Ġleave": 1383,
      "ake": 1384,
      "Ġsear": 1385,
      "Ġstrange": 1386,
      "ister": 1387,
      "Ġsit": 1388,
      "der": 1389,
      "Ġgrow": 1390,
      "Ġwoods": 1391,
      "Ġsail": 1392,
      "Ġpulled": 1393,
      "ling": 1394,
      "Ġmoral": 1395,
      "Ġwon": 1396,
      "Ġplan": 1397,
      "pping": 1398,
      "ott": 1399,
      "Ġride": 1400,
      "Ġasks": 1401,
      "zz": 1402,
      "Ġdanger": 1403,
      "Ġtreat": 1404,
      "but": 1405,
      "Ġvisit": 1406,
      "this": 1407,
      "Ġwasn": 1408,
      "uffy": 1409,
      "med": 1410,
      "Ġmusic": 1411,
      "Ġmark": 1412,
      "Ġamazed": 1413,
      "Ġhide": 1414,
      "Ġwaited": 1415,
      "ang": 1416,
      "Ġtowards": 1417,
      "Ġland": 1418,
      "are": 1419,
      "Ġpre": 1420,
      "Ġfield": 1421,
      "Ġfluffy": 1422,
      "sc": 1423,
      "Ġow": 1424,
      "ower": 1425,
      "Ġflying": 1426,
      "iet": 1427,
      "ne": 1428,
      "Ġsilly": 1429,
      "Ġshared": 1430,
      "Ġruns": 1431,
      "Ġcloud": 1432,
      "Ġowner": 1433,
      "ained": 1434,
      "Ġslowly": 1435,
      "key": 1436,
      "Ġliving": 1437,
      "Ġquiet": 1438,
      "Ġbelie": 1439,
      "Ġjob": 1440,
      "ames": 1441,
      "Ġpromised": 1442,
      "gs": 1443,
      "Ġside": 1444,
      "orm": 1445,
      "Ġje": 1446,
      "Ġlake": 1447,
      "maybe": 1448,
      "Ġthinks": 1449,
      "cket": 1450,
      "ever": 1451,
      "ugg": 1452,
      "pes": 1453,
      "Ġsister": 1454,
      "Ġpaint": 1455,
      "thy": 1456,
      "igg": 1457,
      "okay": 1458,
      "Ġna": 1459,
      "Ġmary": 1460,
      "Ġparty": 1461,
      "Ġmust": 1462,
      "ually": 1463,
      "cle": 1464,
      "ises": 1465,
      "Ġrace": 1466,
      "Ġmoney": 1467,
      "Ġwel": 1468,
      "sw": 1469,
      "Ġwear": 1470,
      "Ġcho": 1471,
      "avy": 1472,
      "Ġworried": 1473,
      "Ġfur": 1474,
      "Ġpot": 1475,
      "Ġansw": 1476,
      "Ġfaster": 1477,
      "ased": 1478,
      "Ġprincess": 1479,
      "Ġcolorful": 1480,
      "Ġgrate": 1481,
      "Ġdance": 1482,
      "Ġpieces": 1483,
      "Ġbran": 1484,
      "Ġbott": 1485,
      "Ġluck": 1486,
      "Ġcup": 1487,
      "Ġbroke": 1488,
      "Ġpro": 1489,
      "Ġgrateful": 1490,
      "Ġsuch": 1491,
      "Ġgift": 1492,
      "ze": 1493,
      "Ġbigger": 1494,
      "Ġwin": 1495,
      "Ġtrain": 1496,
      "oom": 1497,
      "Ġcandy": 1498,
      "Ġreach": 1499,
      "fort": 1500,
      "Ġmonster": 1501,
      "Ġpull": 1502,
      "app": 1503,
      "Ġblank": 1504,
      "the": 1505,
      "Ġmr": 1506,
      "Ġve": 1507,
      "Ġele": 1508,
      "Ġblack": 1509,
      "Ġfarmer": 1510,
      "Ġbar": 1511,
      "sure": 1512,
      "Ġplant": 1513,
      "Ġjoin": 1514,
      "Ġriver": 1515,
      "Ġstu": 1516,
      "Ġinst": 1517,
      "Ġcall": 1518,
      "Ġblanket": 1519,
      "Ġscream": 1520,
      "Ġtreasure": 1521,
      "Ġmagical": 1522,
      "Ġsmart": 1523,
      "Ġcomp": 1524,
      "Ġlun": 1525,
      "Ġdragon": 1526,
      "uit": 1527,
      "Ġbee": 1528,
      "less": 1529,
      "Ġbike": 1530,
      "Ġevent": 1531,
      "Ġdangerous": 1532,
      "Ġmost": 1533,
      "Ġsign": 1534,
      "de": 1535,
      "Ġacross": 1536,
      "Ġhelping": 1537,
      "Ġkitt": 1538,
      "Ġnap": 1539,
      "why": 1540,
      "Ġmin": 1541,
      "hi": 1542,
      "outh": 1543,
      "Ġmiss": 1544,
      "Ġdisapp": 1545,
      "Ġspr": 1546,
      "Ġmouth": 1547,
      "set": 1548,
      "ire": 1549,
      "icy": 1550,
      "Ġjimmy": 1551,
      "Ġwords": 1552,
      "ipped": 1553,
      "Ġstre": 1554,
      "Ġtower": 1555,
      "ored": 1556,
      "Ġdolls": 1557,
      "Ġacc": 1558,
      "eared": 1559,
      "Ġpass": 1560,
      "Ġthrew": 1561,
      "Ġstepped": 1562,
      "ming": 1563,
      "Ġheavy": 1564,
      "Ġdoctor": 1565,
      "Ġbite": 1566,
      "Ġbowl": 1567,
      "Ġdirty": 1568,
      "Ġtwins": 1569,
      "Ġsame": 1570,
      "Ġcrying": 1571,
      "red": 1572,
      "Ġbelieve": 1573,
      "ident": 1574,
      "Ġbath": 1575,
      "Ġheal": 1576,
      "Ġhig": 1577,
      "mommy": 1578,
      "Ġcarrot": 1579,
      "ment": 1580,
      "chool": 1581,
      "bble": 1582,
      "Ġclosed": 1583,
      "Ġheart": 1584,
      "Ġbuck": 1585,
      "lla": 1586,
      "Ġfruit": 1587,
      "Ġcour": 1588,
      "ere": 1589,
      "Ġstuck": 1590,
      "Ġatt": 1591,
      "Ġschool": 1592,
      "Ġwithout": 1593,
      "la": 1594,
      "Ġteac": 1595,
      "Ġmix": 1596,
      "Ġhoped": 1597,
      "Ġfairy": 1598,
      "Ġbask": 1599,
      "Ġeating": 1600,
      "Ġbasket": 1601,
      "iting": 1602,
      "Ġfeels": 1603,
      "Ġemma": 1604,
      "Ġchair": 1605,
      "Ġtown": 1606,
      "Ġcray": 1607,
      "Ġcourse": 1608,
      "Ġwelcome": 1609,
      "Ġclapped": 1610,
      "Ġwouldn": 1611,
      "Ġbutt": 1612,
      "Ġstand": 1613,
      "Ġgentle": 1614,
      "br": 1615,
      "do": 1616,
      "Ġpack": 1617,
      "os": 1618,
      "Ġeventually": 1619,
      "ches": 1620,
      "ier": 1621,
      "Ġmummy": 1622,
      "Ġalong": 1623,
      "Ġdrove": 1624,
      "Ġpushed": 1625,
      "ors": 1626,
      "issed": 1627,
      "Ġhigher": 1628,
      "Ġswings": 1629,
      "Ġsec": 1630,
      "Ġneigh": 1631,
      "Ġpocket": 1632,
      "Ġkno": 1633,
      "orrow": 1634,
      "Ġhit": 1635,
      "Ġteacher": 1636,
      "Ġneighb": 1637,
      "Ġpers": 1638,
      "Ġaccident": 1639,
      "ord": 1640,
      "Ġgames": 1641,
      "Ġpiece": 1642,
      "Ġcheered": 1643,
      "Ġwings": 1644,
      "ract": 1645,
      "Ġfree": 1646,
      "Ġforget": 1647,
      "to": 1648,
      "Ġjour": 1649,
      "Ġexplained": 1650,
      "Ġyard": 1651,
      "Ġlonger": 1652,
      "Ġcorn": 1653,
      "ible": 1654,
      "Ġdry": 1655,
      "Ġwell": 1656,
      "umb": 1657,
      "Ġnoises": 1658,
      "itting": 1659,
      "Ġsang": 1660,
      "Ġthrow": 1661,
      "Ġlate": 1662,
      "Ġhappen": 1663,
      "Ġhugs": 1664,
      "Ġstar": 1665,
      "Ġyoung": 1666,
      "Ġturns": 1667,
      "Ġstories": 1668,
      "Ġsinging": 1669,
      "ead": 1670,
      "Ġlon": 1671,
      "vel": 1672,
      "Ġinstead": 1673,
      "Ġshoes": 1674,
      "Ġmad": 1675,
      "Ġtiny": 1676,
      "phant": 1677,
      "Ġking": 1678,
      "Ġadventures": 1679,
      "Ġelephant": 1680,
      "ney": 1681,
      "Ġtrou": 1682,
      "Ġowl": 1683,
      "Ġneck": 1684,
      "Ġmine": 1685,
      "Ġapple": 1686,
      "Ġlunch": 1687,
      "Ġsea": 1688,
      "Ġph": 1689,
      "Ġupset": 1690,
      "Ġmonkey": 1691,
      "Ġlonely": 1692,
      "ost": 1693,
      "Ġstreet": 1694,
      "Ġbelong": 1695,
      "Ġdist": 1696,
      "Ġsecret": 1697,
      "oun": 1698,
      "Ġplac": 1699,
      "Ġwish": 1700,
      "Ġfence": 1701,
      "ek": 1702,
      "Ġpurp": 1703,
      "ountain": 1704,
      "Ġdes": 1705,
      "Ġwise": 1706,
      "Ġnearby": 1707,
      "Ġexploring": 1708,
      "Ġshook": 1709,
      "Ġsoup": 1710,
      "Ġmoved": 1711,
      "Ġyear": 1712,
      "Ġnaught": 1713,
      "Ġshop": 1714,
      "Ġnaughty": 1715,
      "Ġstars": 1716,
      "Ġbring": 1717,
      "Ġsammy": 1718,
      "bow": 1719,
      "Ġjar": 1720,
      "fused": 1721,
      "Ġtaking": 1722,
      "Ġinv": 1723,
      "Ġnothing": 1724,
      "Ġsunny": 1725,
      "yard": 1726,
      "Ġbat": 1727,
      "Ġcaught": 1728,
      "ward": 1729,
      "Ġbackyard": 1730,
      "Ġseemed": 1731,
      "Ġrocks": 1732,
      "Ġpurple": 1733,
      "Ġrelie": 1734,
      "Ġdrink": 1735,
      "Ġresp": 1736,
      "Ġdropped": 1737,
      "Ġmil": 1738,
      "ughter": 1739,
      "Ġ3": 1740,
      "Ġthough": 1741,
      "Ġbucket": 1742,
      "adow": 1743,
      "Ġorange": 1744,
      "mm": 1745,
      "Ġwhenever": 1746,
      "sy": 1747,
      "Ġswam": 1748,
      "Ġmail": 1749,
      "Ġcow": 1750,
      "Ġpast": 1751,
      "ol": 1752,
      "Ġmitt": 1753,
      "Ġshapes": 1754,
      "col": 1755,
      "ions": 1756,
      "Ġrainbow": 1757,
      "Ġsitting": 1758,
      "Ġwoke": 1759,
      "Ġbench": 1760,
      "cing": 1761,
      "Ġsounds": 1762,
      "ity": 1763,
      "Ġfit": 1764,
      "Ġbusy": 1765,
      "Ġwondered": 1766,
      "Ġboun": 1767,
      "Ġob": 1768,
      "Ġnose": 1769,
      "Ġnest": 1770,
      "Ġdaughter": 1771,
      "Ġval": 1772,
      "ese": 1773,
      "Ġpig": 1774,
      "Ġtakes": 1775,
      "Ġjuice": 1776,
      "Ġholding": 1777,
      "Ġkite": 1778,
      "Ġcou": 1779,
      "read": 1780,
      "lily": 1781,
      "ped": 1782,
      "Ġlucky": 1783,
      "Ġkey": 1784,
      "Ġdays": 1785,
      "Ġcomes": 1786,
      "bby": 1787,
      "Ġarms": 1788,
      "Ġbirth": 1789,
      "Ġbirthday": 1790,
      "ts": 1791,
      "Ġcoat": 1792,
      "Ġcir": 1793,
      "ining": 1794,
      "Ġrec": 1795,
      "Ġbranch": 1796,
      "Ġrelieved": 1797,
      "oc": 1798,
      "pper": 1799,
      "raid": 1800,
      "Ġafraid": 1801,
      "Ġdriver": 1802,
      "Ġant": 1803,
      "ia": 1804,
      "Ġforever": 1805,
      "idge": 1806,
      "Ġspoon": 1807,
      "of": 1808,
      "vered": 1809,
      "Ġtweet": 1810,
      "Ġhello": 1811,
      "Ġpeace": 1812,
      "Ġcute": 1813,
      "Ġcarry": 1814,
      "Ġpromise": 1815,
      "Ġsick": 1816,
      "Ġlift": 1817,
      "lect": 1818,
      "ours": 1819,
      "Ġhope": 1820,
      "Ġzoom": 1821,
      "Ġround": 1822,
      "Ġhuge": 1823,
      "Ġact": 1824,
      "Ġpatient": 1825,
      "ung": 1826,
      "Ġtouched": 1827,
      "Ġjenny": 1828,
      "unt": 1829,
      "Ġcheese": 1830,
      "ear": 1831,
      "erest": 1832,
      "Ġfing": 1833,
      "Ġgrab": 1834,
      "Ġletter": 1835,
      "Ġinterest": 1836,
      "Ġexciting": 1837,
      "Ġlife": 1838,
      "Ġlaughing": 1839,
      "Ġbush": 1840,
      "Ġonto": 1841,
      "ee": 1842,
      "Ġband": 1843,
      "board": 1844,
      "Ġgigg": 1845,
      "Ġimag": 1846,
      "Ġcreature": 1847,
      "Ġhoney": 1848,
      "Ġdisco": 1849,
      "Ġbread": 1850,
      "gged": 1851,
      "hey": 1852,
      "Ġret": 1853,
      "alm": 1854,
      "Ġkick": 1855,
      "Ġpower": 1856,
      "shine": 1857,
      "Ġshell": 1858,
      "Ġshar": 1859,
      "Ġcraw": 1860,
      "Ġmist": 1861,
      "Ġswimming": 1862,
      "Ġsunshine": 1863,
      "Ġcozy": 1864,
      "Ġwhist": 1865,
      "Ġjourney": 1866,
      "Ġinc": 1867,
      "Ġsuc": 1868,
      "Ġbottle": 1869,
      "Ġwra": 1870,
      "ness": 1871,
      "Ġmilk": 1872,
      "Ġear": 1873,
      "Ġspin": 1874,
      "ian": 1875,
      "Ġemily": 1876,
      "Ġwatching": 1877,
      "Ġsharp": 1878,
      "Ġcomfort": 1879,
      "ten": 1880,
      "Ġreturn": 1881,
      "Ġpudd": 1882,
      "Ġeas": 1883,
      "Ġhar": 1884,
      "Ġaccidentally": 1885,
      "Ġcave": 1886,
      "Ġputs": 1887,
      "Ġeg": 1888,
      "Ġtalked": 1889,
      "Ġpointed": 1890,
      "Ġgives": 1891,
      "Ġgather": 1892,
      "Ġsmiling": 1893,
      "Ġfan": 1894,
      "Ġent": 1895,
      "Ġroad": 1896,
      "Ġhor": 1897,
      "Ġcollect": 1898,
      "Ġanyone": 1899,
      "Ġce": 1900,
      "Ġbought": 1901,
      "Ġwhis": 1902,
      "ball": 1903,
      "Ġsearched": 1904,
      "Ġmittens": 1905,
      "Ġgrandpa": 1906,
      "Ġsandw": 1907,
      "Ġapples": 1908,
      "els": 1909,
      "good": 1910,
      "round": 1911,
      "Ġproble": 1912,
      "Ġmeet": 1913,
      "Ġproblem": 1914,
      "irt": 1915,
      "Ġmach": 1916,
      "ize": 1917,
      "eter": 1918,
      "Ġwom": 1919,
      "Ġroll": 1920,
      "Ġloves": 1921,
      "Ġinteresting": 1922,
      "Ġwoman": 1923,
      "Ġspid": 1924,
      "Ġplane": 1925,
      "Ġkiss": 1926,
      "Ġducks": 1927,
      "Ġpres": 1928,
      "Ġhealthy": 1929,
      "Ġtasty": 1930,
      "Ġpile": 1931,
      "Ġpop": 1932,
      "Ġvill": 1933,
      "Ġwide": 1934,
      "amed": 1935,
      "Ġtrouble": 1936,
      "Ġclever": 1937,
      "Ġadm": 1938,
      "aur": 1939,
      "Ġcrayons": 1940,
      "Ġprot": 1941,
      "Ġap": 1942,
      "Ġclouds": 1943,
      "owed": 1944,
      "ont": 1945,
      "Ġmatter": 1946,
      "sie": 1947,
      "Ġstorm": 1948,
      "Ġperson": 1949,
      "Ġfeather": 1950,
      "Ġhon": 1951,
      "Ġpill": 1952,
      "Ġpath": 1953,
      "ub": 1954,
      "Ġsnowman": 1955,
      "Ġrose": 1956,
      "Ġrope": 1957,
      "Ġprotect": 1958,
      "Ġshining": 1959,
      "Ġsmelled": 1960,
      "Ġfront": 1961,
      "Ġbutton": 1962,
      "Ġpract": 1963,
      "Ġrespect": 1964,
      "Ġzoo": 1965,
      "not": 1966,
      "Ġbubble": 1967,
      "Ġspotted": 1968,
      "Ġscreamed": 1969,
      "Ġminut": 1970,
      "Ġpresent": 1971,
      "Ġwhich": 1972,
      "Ġsaf": 1973,
      "Ġsnack": 1974,
      "Ġmud": 1975,
      "Ġjake": 1976,
      "ching": 1977,
      "Ġpar": 1978,
      "Ġorgan": 1979,
      "Ġash": 1980,
      "Ġdanced": 1981,
      "Ġcheer": 1982,
      "tim": 1983,
      "Ġrob": 1984,
      "Ġpuzz": 1985,
      "Ġquest": 1986,
      "Ġteach": 1987,
      "Ġappeared": 1988,
      "Ġmyster": 1989,
      "eth": 1990,
      "Ġseat": 1991,
      "Ġthin": 1992,
      "Ġbark": 1993,
      "ove": 1994,
      "Ġsnake": 1995,
      "isa": 1996,
      "Ġwild": 1997,
      "Ġsur": 1998,
      "Ġgently": 1999,
      "Ġlovely": 2000,
      "Ġasleep": 2001,
      "ert": 2002,
      "Ġgiant": 2003,
      "Ġanswer": 2004,
      "Ġhorse": 2005,
      "epend": 2006,
      "Ġwearing": 2007,
      "Ġchar": 2008,
      "Ġneighbor": 2009,
      "oose": 2010,
      "Ġplaces": 2011,
      "Ġshr": 2012,
      "Ġgoes": 2013,
      "Ġwhole": 2014,
      "Ġconfused": 2015,
      "Ġmind": 2016,
      "Ġlar": 2017,
      "ps": 2018,
      "Ġdi": 2019,
      "Ġimpress": 2020,
      "Ġdirt": 2021,
      "Ġmed": 2022,
      "Ġcorner": 2023,
      "Ġsplas": 2024,
      "ular": 2025,
      "ale": 2026,
      "Ġexp": 2027,
      "Ġtries": 2028,
      "Ġlisa": 2029,
      "Ġchick": 2030,
      "Ġlive": 2031,
      "Ġcalm": 2032,
      "ato": 2033,
      "Ġslid": 2034,
      "Ġrolled": 2035,
      "Ġcard": 2036,
      "Ġsharing": 2037,
      "Ġtasted": 2038,
      "Ġsupp": 2039,
      "nic": 2040,
      "cean": 2041,
      "Ġocean": 2042,
      "Ġforgive": 2043,
      "Ġpicnic": 2044,
      "Ġlast": 2045,
      "Ġser": 2046,
      "Ġmachine": 2047,
      "Ġrude": 2048,
      "Ġtun": 2049,
      "Ġdrive": 2050,
      "Ġspent": 2051,
      "Ġteeth": 2052,
      "ssed": 2053,
      "Ġsmo": 2054,
      "Ġfurry": 2055,
      "Ġspider": 2056,
      "Ġphone": 2057,
      "ager": 2058,
      "Ġlay": 2059,
      "Ġcookie": 2060,
      "Ġpan": 2061,
      "Ġtrue": 2062,
      "Ġoven": 2063,
      "Ġpour": 2064,
      "Ġdelight": 2065,
      "Ġring": 2066,
      "Ġpretended": 2067,
      "Ġworm": 2068,
      "Ġsal": 2069,
      "Ġfeet": 2070,
      "Ġfighting": 2071,
      "unk": 2072,
      "Ġfaces": 2073,
      "Ġkitty": 2074,
      "Ġtomorrow": 2075,
      "umber": 2076,
      "Ġhelpful": 2077,
      "Ġlad": 2078,
      "Ġpeter": 2079,
      "Ġnut": 2080,
      "Ġwip": 2081,
      "lder": 2082,
      "Ġwave": 2083,
      "Ġban": 2084,
      "Ġmountain": 2085,
      "bar": 2086,
      "Ġtalking": 2087,
      "Ġchocol": 2088,
      "Ġshy": 2089,
      "ones": 2090,
      "Ġgrace": 2091,
      "tom": 2092,
      "Ġcart": 2093,
      "Ġstep": 2094,
      "Ġtid": 2095,
      "Ġspe": 2096,
      "Ġthese": 2097,
      "Ġself": 2098,
      "Ġspread": 2099,
      "Ġign": 2100,
      "Ġvillage": 2101,
      "Ġeager": 2102,
      "Ġstret": 2103,
      "Ġremind": 2104,
      "Ġfoot": 2105,
      "Ġcoin": 2106,
      "Ġann": 2107,
      "Ġwrite": 2108,
      "Ġpush": 2109,
      "Ġcouch": 2110,
      "please": 2111,
      "Ġbuilding": 2112,
      "Ġladder": 2113,
      "Ġsmooth": 2114,
      "Ġbugs": 2115,
      "Ġtreats": 2116,
      "Ġtool": 2117,
      "Ġwore": 2118,
      "Ġchased": 2119,
      "Ġtrip": 2120,
      "ighed": 2121,
      "Ġblew": 2122,
      "Ġrobot": 2123,
      "Ġcoo": 2124,
      "Ġpaw": 2125,
      "Ġembar": 2126,
      "me": 2127,
      "lex": 2128,
      "Ġhel": 2129,
      "Ġbell": 2130,
      "Ġembarra": 2131,
      "Ġhiding": 2132,
      "Ġcross": 2133,
      "Ġpool": 2134,
      "Ġ'": 2135,
      "Ġwaiting": 2136,
      "Ġknee": 2137,
      "Ġpuddle": 2138,
      "Ġneckl": 2139,
      "Ġstir": 2140,
      "Ġfinish": 2141,
      "ife": 2142,
      "Ġshelf": 2143,
      "Ġsongs": 2144,
      "Ġfred": 2145,
      "als": 2146,
      "ator": 2147,
      "Ġselfish": 2148,
      "ying": 2149,
      "Ġchocolate": 2150,
      "scap": 2151,
      "Ġstra": 2152,
      "Ġcannot": 2153,
      "Ġstring": 2154,
      "Ġscar": 2155,
      "Ġhum": 2156,
      "Ġsol": 2157,
      "Ġtaste": 2158,
      "Ġgen": 2159,
      "ult": 2160,
      "Ġsack": 2161,
      "Ġbanan": 2162,
      "ha": 2163,
      "llie": 2164,
      "Ġple": 2165,
      "Ġcrab": 2166,
      "Ġleaf": 2167,
      "Ġlarge": 2168,
      "Ġnet": 2169,
      "box": 2170,
      "Ġcele": 2171,
      "Ġspray": 2172,
      "Ġwash": 2173,
      "Ġfixed": 2174,
      "Ġstone": 2175,
      "Ġbarked": 2176,
      "Ġcelebr": 2177,
      "Ġtrust": 2178,
      "Ġcloth": 2179,
      "Ġpeaceful": 2180,
      "Ġcolour": 2181,
      "Ġsplash": 2182,
      "umpy": 2183,
      "izz": 2184,
      "Åĵi": 2185,
      "Ġjung": 2186,
      "mmer": 2187,
      "Ġmoon": 2188,
      "Ġjungle": 2189,
      "Ġdeter": 2190,
      "Ġmissed": 2191,
      "Ġhonest": 2192,
      "iger": 2193,
      "oin": 2194,
      "Ġjumping": 2195,
      "Ġdeterm": 2196,
      "ass": 2197,
      "Ġgray": 2198,
      "Ġembarrassed": 2199,
      "Ġlanded": 2200,
      "Ġforward": 2201,
      "Ġjohnny": 2202,
      "Ġbal": 2203,
      "ail": 2204,
      "Ġnecklace": 2205,
      "Ġtidy": 2206,
      "Ġdecor": 2207,
      "dge": 2208,
      "Ġalice": 2209,
      "Ġtv": 2210,
      "Ġdisappoin": 2211,
      "Ġhears": 2212,
      "Ġber": 2213,
      "Ġsticks": 2214,
      "Ġsuccess": 2215,
      "Ġcarrots": 2216,
      "Ġcreative": 2217,
      "Ġshirt": 2218,
      "Ġtea": 2219,
      "Ġmeadow": 2220,
      "Ġknocked": 2221,
      "old": 2222,
      "getable": 2223,
      "Ġgener": 2224,
      "airs": 2225,
      "Ġvegetable": 2226,
      "Ġstood": 2227,
      "most": 2228,
      "Ġsour": 2229,
      "Ġalmost": 2230,
      "ned": 2231,
      "Ġmeant": 2232,
      "Ġlegs": 2233,
      "Ġtightly": 2234,
      "Ġbreath": 2235,
      "Ġplate": 2236,
      "Ġashamed": 2237,
      "Ġwhistle": 2238,
      "Ġemp": 2239,
      "ush": 2240,
      "Ġgas": 2241,
      "Ġpillow": 2242,
      "Ġgrew": 2243,
      "dle": 2244,
      "Ġtells": 2245,
      "Ġempty": 2246,
      "ope": 2247,
      "ground": 2248,
      "Ġsheep": 2249,
      "Ġgold": 2250,
      "gy": 2251,
      "Ġmir": 2252,
      "Ġlem": 2253,
      "wel": 2254,
      "lo": 2255,
      "Ġunderstood": 2256,
      "Ġcarried": 2257,
      "Ġhours": 2258,
      "den": 2259,
      "Ġyelled": 2260,
      "Ġdisappointed": 2261,
      "eb": 2262,
      "Ġpolice": 2263,
      "Ġsave": 2264,
      "Ġhur": 2265,
      "ken": 2266,
      "Ġnods": 2267,
      "ustr": 2268,
      "vous": 2269,
      "Ġsnacks": 2270,
      "ital": 2271,
      "Ġfrustr": 2272,
      "Ġkitten": 2273,
      "Ġsparkly": 2274,
      "hin": 2275,
      "Ġblock": 2276,
      "Ġchew": 2277,
      "Ġhosp": 2278,
      "Ġpay": 2279,
      "Ġship": 2280,
      "Ġhospital": 2281,
      "Ġprince": 2282,
      "ara": 2283,
      "Ġstanding": 2284,
      "Ġav": 2285,
      "wor": 2286,
      "Ġwolf": 2287,
      "Ġrad": 2288,
      "Ġbored": 2289,
      "Ġtest": 2290,
      "Ġline": 2291,
      "Ġpizz": 2292,
      "Ġgenerous": 2293,
      "Ġhidden": 2294,
      "Ġknowing": 2295,
      "Ġpoor": 2296,
      "Ġleo": 2297,
      "Ġtaught": 2298,
      "ets": 2299,
      "elly": 2300,
      "ye": 2301,
      "een": 2302,
      "stop": 2303,
      "Ġglass": 2304,
      "urse": 2305,
      "Ġscarf": 2306,
      "com": 2307,
      "Ġblow": 2308,
      "body": 2309,
      "Ġminutes": 2310,
      "Ġreturned": 2311,
      "Ġeasy": 2312,
      "Ġpri": 2313,
      "Ġplants": 2314,
      "Ġpolite": 2315,
      "Ġgroup": 2316,
      "Ġjelly": 2317,
      "Ġliz": 2318,
      "iff": 2319,
      "Ġwaves": 2320,
      "Ġrex": 2321,
      "Ġbedroom": 2322,
      "Ġmysterious": 2323,
      "Ġsighed": 2324,
      "Ġshore": 2325,
      "Ġpin": 2326,
      "Ġpir": 2327,
      "Ġfrustrated": 2328,
      "Ġseed": 2329,
      "Ġseek": 2330,
      "ird": 2331,
      "Ġdetermined": 2332,
      "Ġpizza": 2333,
      "Ġwis": 2334,
      "Ġthankful": 2335,
      "Ġpuzzle": 2336,
      "Ġpowerful": 2337,
      "Ġclass": 2338,
      "Ġspicy": 2339,
      "oil": 2340,
      "Ġner": 2341,
      "Ġsleepy": 2342,
      "Ġfig": 2343,
      "kin": 2344,
      "Ġmid": 2345,
      "Ġsandwich": 2346,
      "Ġreg": 2347,
      "Ġdrew": 2348,
      "work": 2349,
      "Ġgun": 2350,
      "ready": 2351,
      "Ġpassed": 2352,
      "Ġgrumpy": 2353,
      "Ġfinger": 2354,
      "Ġmot": 2355,
      "Ġsusie": 2356,
      "Ġfancy": 2357,
      "Ġnervous": 2358,
      "'d": 2359,
      "up": 2360,
      "Ġspoil": 2361,
      "Ġtick": 2362,
      "Ġmessy": 2363,
      "Ġtears": 2364,
      "Ġfear": 2365,
      "pill": 2366,
      "Ġlock": 2367,
      "Ġbridge": 2368,
      "Ġgate": 2369,
      "Ġcater": 2370,
      "Ġmill": 2371,
      "osaur": 2372,
      "Ġcaterpill": 2373,
      "Ġfeed": 2374,
      "Ġkissed": 2375,
      "Ġcloset": 2376,
      "Ġsold": 2377,
      "sor": 2378,
      "Ġhang": 2379,
      "Ġexcite": 2380,
      "Ġvan": 2381,
      "Ġcirc": 2382,
      "Ġgathered": 2383,
      "Ġdrop": 2384,
      "ote": 2385,
      "Ġdinosaur": 2386,
      "sorry": 2387,
      "Ġflag": 2388,
      "Ġescap": 2389,
      "fl": 2390,
      "Ġbubbles": 2391,
      "uce": 2392,
      "Ġwhisper": 2393,
      "Ġyourself": 2394,
      "af": 2395,
      "Ġsciss": 2396,
      "Ġanswered": 2397,
      "Ġscissors": 2398,
      "sel": 2399,
      "Ġoften": 2400,
      "Ġcries": 2401,
      "Ġbill": 2402,
      "itter": 2403,
      "sist": 2404,
      "Ġug": 2405,
      "Ġtwirl": 2406,
      "Ġchest": 2407,
      "Ġscr": 2408,
      "Ġworking": 2409,
      "selves": 2410,
      "Ġhopping": 2411,
      "pack": 2412,
      "ben": 2413,
      "Ġdeer": 2414,
      "Ġugly": 2415,
      "Ġcand": 2416,
      "mb": 2417,
      "era": 2418,
      "Ġburn": 2419,
      "Ġcaterpillar": 2420,
      "Ġfil": 2421,
      "ensive": 2422,
      "Ġexcitement": 2423,
      "Ġed": 2424,
      "Ġexpensive": 2425,
      "Ġlit": 2426,
      "Ġmiddle": 2427,
      "Ġsaved": 2428,
      "ina": 2429,
      "illed": 2430,
      "Ġtaken": 2431,
      "Ġleg": 2432,
      "Ġwagged": 2433,
      "Ġcrown": 2434,
      "Ġpleased": 2435,
      "Ġones": 2436,
      "Ġsug": 2437,
      "Ġspend": 2438,
      "ax": 2439,
      "oof": 2440,
      "Ġboring": 2441,
      "Ġpicks": 2442,
      "who": 2443,
      "Ġasking": 2444,
      "Ġboss": 2445,
      "Ġtent": 2446,
      "Ġvase": 2447,
      "Ġjog": 2448,
      "Ġbrush": 2449,
      "astic": 2450,
      "Ġsugar": 2451,
      "Ġtie": 2452,
      "Ġqueen": 2453,
      "ual": 2454,
      "Ġbobby": 2455,
      "Ġvegetables": 2456,
      "ates": 2457,
      "Ġdancing": 2458,
      "ser": 2459,
      "Ġmay": 2460,
      "speci": 2461,
      "Ġgiggled": 2462,
      "light": 2463,
      "Ġcage": 2464,
      "Ġmistake": 2465,
      "Ġrocket": 2466,
      "Ġclown": 2467,
      "Ġespeci": 2468,
      "Ġespecially": 2469,
      "Ġnumber": 2470,
      "Ġflut": 2471,
      "Ġgets": 2472,
      "Ġstuff": 2473,
      "Ġcomfortable": 2474,
      "Ġpacked": 2475,
      "oph": 2476,
      "Ġwander": 2477,
      "Ġlying": 2478,
      "Ġknight": 2479,
      "Ġmedic": 2480,
      "Ġpress": 2481,
      "ose": 2482,
      "Ġjam": 2483,
      "now": 2484,
      "Ġsight": 2485,
      "Ġfruits": 2486,
      "Ġsweetie": 2487,
      "Ġeggs": 2488,
      "iness": 2489,
      "Ġdrum": 2490,
      "Ġfake": 2491,
      "Ġpus": 2492,
      "Ġdest": 2493,
      "Ġglue": 2494,
      "Ġmedicine": 2495,
      "ror": 2496,
      "Ġroar": 2497,
      "Ġwalks": 2498,
      "Ġdistance": 2499,
      "Ġpete": 2500,
      "Ġdrawing": 2501,
      "Ġbone": 2502,
      "Ġlemon": 2503,
      "Ġmandy": 2504,
      "Ġsplashed": 2505,
      "Ġtwist": 2506,
      "Ġmoving": 2507,
      "Ġweek": 2508,
      "Ġbake": 2509,
      "Ġpray": 2510,
      "Ġelder": 2511,
      "Ġclap": 2512,
      "yal": 2513,
      "Ġdisappeared": 2514,
      "Ġlead": 2515,
      "Ġyog": 2516,
      "Ġsmelly": 2517,
      "Ġchange": 2518,
      "Ġrich": 2519,
      "Ġdogs": 2520,
      "Ġfold": 2521,
      "Ġfeathers": 2522,
      "Ġbecome": 2523,
      "Ġgar": 2524,
      "Ġmoms": 2525,
      "Ġaunt": 2526,
      "Ġmic": 2527,
      "itch": 2528,
      "Ġfather": 2529,
      "Ġfis": 2530,
      "Ġadd": 2531,
      "oop": 2532,
      "Ġmov": 2533,
      "cer": 2534,
      "Ġlose": 2535,
      "Ġlazy": 2536,
      "Ġlicked": 2537,
      "Ġcalling": 2538,
      "Ġrid": 2539,
      "Ġplayground": 2540,
      "Ġbathroom": 2541,
      "Ġcri": 2542,
      "Ġpenny": 2543,
      "Ġmatch": 2544,
      "Ġelderly": 2545,
      "Ġchir": 2546,
      "Ġincred": 2547,
      "Ġweak": 2548,
      "ots": 2549,
      "Ġhorn": 2550,
      "Ġexam": 2551,
      "ery": 2552,
      "?\".": 2553,
      "Ġbody": 2554,
      "ory": 2555,
      "Ġyours": 2556,
      "Ġge": 2557,
      "Ġquestions": 2558,
      "Ġwrote": 2559,
      "Ġmirror": 2560,
      "Ġnoisy": 2561,
      "Ġloyal": 2562,
      "Ġnod": 2563,
      "uggest": 2564,
      "Ġsuggest": 2565,
      "Ġskipped": 2566,
      "Ġwheel": 2567,
      "land": 2568,
      "Ġtiger": 2569,
      "eez": 2570,
      "Ġdish": 2571,
      "ond": 2572,
      "keep": 2573,
      "Ġlamp": 2574,
      "hip": 2575,
      "Ġglow": 2576,
      "Ġclear": 2577,
      "Ġtape": 2578,
      "Ġext": 2579,
      "Ġfamous": 2580,
      "Ġdig": 2581,
      "well": 2582,
      "ging": 2583,
      "Ġstones": 2584,
      "Ġellie": 2585,
      "Ġind": 2586,
      "Ġrare": 2587,
      "Ġruined": 2588,
      "ination": 2589,
      "Ġord": 2590,
      "Ġsoap": 2591,
      "Ġang": 2592,
      "Ġsell": 2593,
      "Ġfigure": 2594,
      "Ġcontent": 2595,
      "Ġdrank": 2596,
      "Ġincredible": 2597,
      "Ġrelax": 2598,
      "Ġter": 2599,
      "Ġswan": 2600,
      "Ġshows": 2601,
      "Ġjuicy": 2602,
      "Ġcheck": 2603,
      "Ġshoot": 2604,
      "Ġcovered": 2605,
      "Ġballs": 2606,
      "Ġteam": 2607,
      "Ġsailed": 2608,
      "Ġmeasure": 2609,
      "ating": 2610,
      "ately": 2611,
      "Ġdecide": 2612,
      "Ġrealised": 2613,
      "umbled": 2614,
      "Ġdiscovered": 2615,
      "Ġbarn": 2616,
      "Ġturt": 2617,
      "Ġcoins": 2618,
      "help": 2619,
      "Ġborrow": 2620,
      "Ġneeds": 2621,
      "Ġstraw": 2622,
      "fic": 2623,
      "mo": 2624,
      "ti": 2625,
      "Ġadventur": 2626,
      "Ġella": 2627,
      "Ġchicken": 2628,
      "Ġmod": 2629,
      "cept": 2630,
      "Ġboys": 2631,
      "Ġmana": 2632,
      "que": 2633,
      "Ġtowel": 2634,
      "Ġcleaned": 2635,
      "Ġbranches": 2636,
      "Ġextra": 2637,
      "Ġjoke": 2638,
      "asing": 2639,
      "Ġmap": 2640,
      "port": 2641,
      "Ġboard": 2642,
      "Ġmotor": 2643,
      "Ġbella": 2644,
      "Ġfine": 2645,
      "Ġbalance": 2646,
      "Ġadventurous": 2647,
      "Ġmighty": 2648,
      "Ġdiffic": 2649,
      "Ġoffered": 2650,
      "Ġsadly": 2651,
      "Ġuni": 2652,
      "Ġlifted": 2653,
      "Ġcolourful": 2654,
      "gu": 2655,
      "Ġsnugg": 2656,
      "Ġdolp": 2657,
      "Ġfrown": 2658,
      "Ġeye": 2659,
      "Ġthick": 2660,
      "Ġtoug": 2661,
      "Ġdifficult": 2662,
      "Ġbottom": 2663,
      "Ġorganized": 2664,
      "Ġtag": 2665,
      "Ġcover": 2666,
      "Ġunique": 2667,
      "alous": 2668,
      "Ġjealous": 2669,
      "Ġhappening": 2670,
      "Ġfright": 2671,
      "Ġsmoke": 2672,
      "Ġhose": 2673,
      "izzy": 2674,
      "Ġisland": 2675,
      "Ġknife": 2676,
      "Ġlearning": 2677,
      "Ġweird": 2678,
      "Ġkindness": 2679,
      "cil": 2680,
      "Ġsil": 2681,
      "Ġbobo": 2682,
      "Ġgarage": 2683,
      "Ġmrs": 2684,
      "Ġmanaged": 2685,
      "Ġhurts": 2686,
      "Ġword": 2687,
      "Ġpencil": 2688,
      "imed": 2689,
      "ges": 2690,
      "Ġbald": 2691,
      "Ġwand": 2692,
      "ject": 2693,
      "Ġhunt": 2694,
      "Ġcircle": 2695,
      "Ġcost": 2696,
      "lies": 2697,
      "Ġcrawled": 2698,
      "Ġsaying": 2699,
      "Ġballoons": 2700,
      "Ġchase": 2701,
      "iv": 2702,
      "Ġcompet": 2703,
      "Ġdave": 2704,
      "Ġberries": 2705,
      "Ġtough": 2706,
      "Ġdizzy": 2707,
      "Ġshake": 2708,
      "Ġpointing": 2709,
      "Ġguess": 2710,
      "Ġjewel": 2711,
      "Ġfour": 2712,
      "Ġsearch": 2713,
      "Ġfavour": 2714,
      "Ġapol": 2715,
      "Ġbur": 2716,
      "ured": 2717,
      "Ġcoco": 2718,
      "illi": 2719,
      "keeper": 2720,
      "Ġbatter": 2721,
      "Ġwhale": 2722,
      "Ġzip": 2723,
      "Ġlouder": 2724,
      "Ġuncle": 2725,
      "Ġadded": 2726,
      "Ġpump": 2727,
      "Ġturtle": 2728,
      "Ġapolog": 2729,
      "Ġguit": 2730,
      "Ġharder": 2731,
      "ipper": 2732,
      "head": 2733,
      "Ġunus": 2734,
      "Ġedge": 2735,
      "Ġalready": 2736,
      "Ġnorm": 2737,
      "Ġtweety": 2738,
      "Ġspun": 2739,
      "Ġfool": 2740,
      "go": 2741,
      "Ġfavourite": 2742,
      "Ġunusual": 2743,
      "Ġlibr": 2744,
      "Ġenjoying": 2745,
      "ipp": 2746,
      "Ġbirdie": 2747,
      "Ġvalu": 2748,
      "rage": 2749,
      "Ġhero": 2750,
      "Ġhats": 2751,
      "Ġstrawber": 2752,
      "Ġcomplet": 2753,
      "Ġbelonged": 2754,
      "Ġcheerful": 2755,
      "Ġtrucks": 2756,
      "Ġwrapped": 2757,
      "Ġexcitedly": 2758,
      "ddy": 2759,
      "Ġimpressed": 2760,
      "Ġgiving": 2761,
      "imp": 2762,
      "alk": 2763,
      "Ġtrunk": 2764,
      "Ġflash": 2765,
      "Ġrecord": 2766,
      "Ġbuzz": 2767,
      "uct": 2768,
      "Ġsword": 2769,
      "Ġmarket": 2770,
      "Ġgrown": 2771,
      "Ġref": 2772,
      "Ġnormal": 2773,
      "Ġlaughs": 2774,
      "Ġbanana": 2775,
      "anged": 2776,
      "Ġbossy": 2777,
      "Ġears": 2778,
      "Ġharm": 2779,
      "Ġbrilli": 2780,
      "Ġguitar": 2781,
      "Ġloudly": 2782,
      "Ġterri": 2783,
      "Ġchoose": 2784,
      "Ġscare": 2785,
      "Ġbrilliant": 2786,
      "Ġproudly": 2787,
      "Ġboxes": 2788,
      "Ġsoph": 2789,
      "ym": 2790,
      "Ġgoat": 2791,
      "Ġpip": 2792,
      "Ġbuttons": 2793,
      "ilt": 2794,
      "Ġcircles": 2795,
      "ature": 2796,
      "Ġbrothers": 2797,
      "Ġpee": 2798,
      "Ġpainting": 2799,
      "Ġpil": 2800,
      "Ġescape": 2801,
      "Ġagainst": 2802,
      "Ġdreamed": 2803,
      "Ġfrightened": 2804,
      "Ġstri": 2805,
      "Ġwake": 2806,
      "Ġskin": 2807,
      "nda": 2808,
      "Ġinvited": 2809,
      "Ġcab": 2810,
      "Ġhelps": 2811,
      "Ġcudd": 2812,
      "Ġmelt": 2813,
      "cient": 2814,
      "Ġdepend": 2815,
      "Ġaccept": 2816,
      "Ġhappiness": 2817,
      "Ġmeans": 2818,
      "Ġsuit": 2819,
      "Ġsafely": 2820,
      "Ġstubb": 2821,
      "fast": 2822,
      "Ġclay": 2823,
      "Ġdesign": 2824,
      "Ġstubborn": 2825,
      "Ġancient": 2826,
      "Ġslipped": 2827,
      "Ġstudy": 2828,
      "Ġcabin": 2829,
      "Ġvaluable": 2830,
      "Ġcrayon": 2831,
      "Ġsof": 2832,
      "Ġstream": 2833,
      "Ġbreakfast": 2834,
      "Ġlog": 2835,
      "Ġwalls": 2836,
      "akes": 2837,
      "Ġthose": 2838,
      "Ġbloom": 2839,
      "ouses": 2840,
      "Ġsuccessful": 2841,
      "edient": 2842,
      "Ġshark": 2843,
      "Ġfier": 2844,
      "Ġdreams": 2845,
      "Ġlean": 2846,
      "Ġfoolish": 2847,
      "Ġfat": 2848,
      "Ġcher": 2849,
      "orge": 2850,
      "Ġknows": 2851,
      "Ġlola": 2852,
      "Ġfridge": 2853,
      "Ġfalls": 2854,
      "Ġthu": 2855,
      "Ġnemo": 2856,
      "Ġshape": 2857,
      "Ġson": 2858,
      "Ġfierce": 2859,
      "Ġnicely": 2860,
      "Ġspace": 2861,
      "Ġrough": 2862,
      "Ġnosy": 2863,
      "Ġcro": 2864,
      "Ġmovie": 2865,
      "Ġcity": 2866,
      "Ġhouses": 2867,
      "Ġtomato": 2868,
      "Ġshadow": 2869,
      "Ġdelicate": 2870,
      "Ġoffice": 2871,
      "Ġobedient": 2872,
      "Ġicy": 2873,
      "lu": 2874,
      "ado": 2875,
      "laimed": 2876,
      "Ġdead": 2877,
      "Åĵlet": 2878,
      "Ġcompetit": 2879,
      "Ġmem": 2880,
      "Ġsuggested": 2881,
      "Ġrat": 2882,
      "Ġwagon": 2883,
      "Ġnotice": 2884,
      "Ġexclaimed": 2885,
      "Ġperform": 2886,
      "Ġshells": 2887,
      "Ġkinds": 2888,
      "Ġmixed": 2889,
      "Ġmel": 2890,
      "Ġwiped": 2891,
      "Ġlights": 2892,
      "Ġuseful": 2893,
      "Ġbounce": 2894,
      "Ġpoured": 2895,
      "uth": 2896,
      "time": 2897,
      "Ġlocked": 2898,
      "Ġtools": 2899,
      "atter": 2900,
      "Ġsounded": 2901,
      "Ġpatch": 2902,
      "wards": 2903,
      "Ġstove": 2904,
      "Ġegg": 2905,
      "Ġexplored": 2906,
      "Ġfrag": 2907,
      "Ġenc": 2908,
      "Ġfre": 2909,
      "!\".": 2910,
      "Ġcrack": 2911,
      "Ġusing": 2912,
      "Ġtimes": 2913,
      "Ġducky": 2914,
      "Ġabove": 2915,
      "Ġfountain": 2916,
      "Ġunlo": 2917,
      "Ġlab": 2918,
      "Ġbags": 2919,
      "Ġweal": 2920,
      "Ġeng": 2921,
      "Ġshowing": 2922,
      "Ġlow": 2923,
      "az": 2924,
      "Ġthemselves": 2925,
      "Ġgeorge": 2926,
      "ention": 2927,
      "Ġspoiled": 2928,
      "Ġwitch": 2929,
      "Ġstumbled": 2930,
      "Ġbushes": 2931,
      "dom": 2932,
      "ey": 2933,
      "Ġresc": 2934,
      "Ġdough": 2935,
      "Ġfingers": 2936,
      "vice": 2937,
      "Ġthoughtful": 2938,
      "Ġindepend": 2939,
      "Ġsmaller": 2940,
      "Ġscrat": 2941,
      "Ġprint": 2942,
      "Ġdependable": 2943,
      "Ġspinning": 2944,
      "Ġparrot": 2945,
      "Ġfragile": 2946,
      "Ġlaw": 2947,
      "Ġplayful": 2948,
      "Ġunk": 2949,
      "Ġjolly": 2950,
      "Ġrep": 2951,
      "Ġcam": 2952,
      "Ġraced": 2953,
      "Ġhelm": 2954,
      "Ġdelighted": 2955,
      "arth": 2956,
      "Ġtele": 2957,
      "Ġclock": 2958,
      "inal": 2959,
      "Ġseem": 2960,
      "Ġbrightly": 2961,
      "ines": 2962,
      "Ġorig": 2963,
      "Ġrode": 2964,
      "ormous": 2965,
      "Ġcop": 2966,
      "Ġearth": 2967,
      "Ġsunfl": 2968,
      "Ġbees": 2969,
      "Ġenormous": 2970,
      "Ġgem": 2971,
      "Ġbuilt": 2972,
      "Ġacorn": 2973,
      "Ġpractice": 2974,
      "Ġadmired": 2975,
      "Ġroof": 2976,
      "Ġsteal": 2977,
      "Ġswe": 2978,
      "Ġtwig": 2979,
      "Ġkicked": 2980,
      "Ġcounted": 2981,
      "Ġcleaning": 2982,
      "corn": 2983,
      "Ġsniff": 2984,
      "Ġways": 2985,
      "Ġchanged": 2986,
      "Ġshone": 2987,
      "Ġreminded": 2988,
      "how": 2989,
      "Ġhammer": 2990,
      "Ġbeak": 2991,
      "ience": 2992,
      "Ġindependent": 2993,
      "Ġer": 2994,
      "Ġbitter": 2995,
      "Åĵyes": 2996,
      "eeze": 2997,
      "Ġangel": 2998,
      "Ġmike": 2999,
      "Ġloll": 3000,
      "ony": 3001,
      "Ġoriginal": 3002,
      "Ġpopcorn": 3003,
      "Ġbean": 3004,
      "Ġhanded": 3005,
      "nown": 3006,
      "Ġdove": 3007,
      "Ġwhispered": 3008,
      "Ġol": 3009,
      "Ġyet": 3010,
      "ither": 3011,
      "Ġtoby": 3012,
      "Ġchose": 3013,
      "Ġcone": 3014,
      "Ġtunn": 3015,
      "anut": 3016,
      "Ġumb": 3017,
      "Ġumbre": 3018,
      "Ġallowed": 3019,
      "Ġserious": 3020,
      "Ġsolve": 3021,
      "Ġguard": 3022,
      "Ġstronger": 3023,
      "Ġdust": 3024,
      "Ġhairy": 3025,
      "Ġtummy": 3026,
      "Ġmis": 3027,
      "ipop": 3028,
      "Ġpeanut": 3029,
      "Ġlollipop": 3030,
      "Ġhalf": 3031,
      "Ġterrible": 3032,
      "Ġpotato": 3033,
      "Ġbrace": 3034,
      "Ġboats": 3035,
      "Ġsauce": 3036,
      "erry": 3037,
      "Ġmoder": 3038,
      "Ġpainted": 3039,
      "Ġbracelet": 3040,
      "Ġunknown": 3041,
      "Ġpumpkin": 3042,
      "Ġsalad": 3043,
      "iable": 3044,
      "ict": 3045,
      "Ġfinding": 3046,
      "Ġleaving": 3047,
      "Ġgasped": 3048,
      "Ġtoast": 3049,
      "Ġclum": 3050,
      "Ġjoined": 3051,
      "Ġwrap": 3052,
      "Ġpicking": 3053,
      "Ġstrugg": 3054,
      "Ġreliable": 3055,
      "Ġbump": 3056,
      "eak": 3057,
      "Ġhay": 3058,
      "Ġthinking": 3059,
      "Ġtank": 3060,
      "iew": 3061,
      "Ġtor": 3062,
      "Ġjoey": 3063,
      "Ġpost": 3064,
      "Ġcompa": 3065,
      "Ġsink": 3066,
      "inary": 3067,
      "het": 3068,
      "Ġcostum": 3069,
      "Ġmetal": 3070,
      "amond": 3071,
      "Ġbarber": 3072,
      "uring": 3073,
      "Ġdolphin": 3074,
      "Ġgoose": 3075,
      "Ġdiamond": 3076,
      "robe": 3077,
      "tern": 3078,
      "Ġview": 3079,
      "Ġpirate": 3080,
      "Ġrubb": 3081,
      "Ġthunder": 3082,
      "anger": 3083,
      "Ġforth": 3084,
      "aghet": 3085,
      "aghetti": 3086,
      "Ġmodern": 3087,
      "Ġadvice": 3088,
      "Ġstamp": 3089,
      "Ġarg": 3090,
      "pid": 3091,
      "Ġspring": 3092,
      "see": 3093,
      "Ġkim": 3094,
      "Ġing": 3095,
      "bs": 3096,
      "Ġholds": 3097,
      "Ġsleeping": 3098,
      "Ġkay": 3099,
      "Ġregular": 3100,
      "Ġspaghetti": 3101,
      "Ġmarble": 3102,
      "Ġclumsy": 3103,
      "Ġflex": 3104,
      "Ġtu": 3105,
      "Åĵwhat": 3106,
      "ugged": 3107,
      "Ġcreate": 3108,
      "Ġwealthy": 3109,
      "Ġyarn": 3110,
      "Ġfriendship": 3111,
      "Ġstupid": 3112,
      "Ġzeb": 3113,
      "Ġcheap": 3114,
      "redient": 3115,
      "Ġingredient": 3116,
      "Ġsearching": 3117,
      "Ġmagn": 3118,
      "Ġpaul": 3119,
      "Ġnature": 3120,
      "Ġstairs": 3121,
      "Ġcoll": 3122,
      "Ġtelling": 3123,
      "Ġrushed": 3124,
      "Ġzebra": 3125,
      "cu": 3126,
      "ilty": 3127,
      "Ġguilty": 3128,
      "Ġcompass": 3129,
      "Ġstat": 3130,
      "Ġmask": 3131,
      "ray": 3132,
      "Ġsquare": 3133,
      "ations": 3134,
      "Ġarrow": 3135,
      "Ġpolly": 3136,
      "Ġmarch": 3137,
      "happy": 3138,
      "Ġopens": 3139,
      "Ġengine": 3140,
      "Ġcrazy": 3141,
      "Ġbeet": 3142,
      "Ġnobody": 3143,
      "Ġandy": 3144,
      "Ġfu": 3145,
      "Ġsophie": 3146,
      "io": 3147,
      "Åĵit": 3148,
      "Ġgraceful": 3149,
      "eezed": 3150,
      "Ġdriving": 3151,
      "irsty": 3152,
      "Ġcroco": 3153,
      "Ġshel": 3154,
      "Ġsuper": 3155,
      "Ġflexible": 3156,
      "Ġcamera": 3157,
      "Ġumbrella": 3158,
      "Ġpebble": 3159,
      "shion": 3160,
      "Ġcarrying": 3161,
      "Ġshiver": 3162,
      "âĤ¬âĢ": 3163,
      "Ġdull": 3164,
      "Ġpopular": 3165,
      "Ġwashed": 3166,
      "Ġstage": 3167,
      "Ġspeed": 3168,
      "ief": 3169,
      "Ġtruth": 3170,
      "Ġcrocod": 3171,
      "Ġchirp": 3172,
      "Ġdoesn": 3173,
      "umbers": 3174,
      "Ġmissing": 3175,
      "Ġreading": 3176,
      "Ġalex": 3177,
      "fish": 3178,
      "Ġsparkled": 3179,
      "Ġseeds": 3180,
      "Ġmeal": 3181,
      "Ġimpressive": 3182,
      "illa": 3183,
      "Ġcareless": 3184,
      "Ġhen": 3185,
      "Ġtied": 3186,
      "Ġlibrary": 3187,
      "Ġdestro": 3188,
      "Ġimagined": 3189,
      "Ġfresh": 3190,
      "Ġhoop": 3191,
      "Ġpige": 3192,
      "Ġdeliver": 3193,
      "Ġreward": 3194,
      "Ġhandle": 3195,
      "Ġpersist": 3196,
      "Ġjacket": 3197,
      "Ġending": 3198,
      "Ġcryst": 3199,
      "Ġdreaming": 3200,
      "Ġprize": 3201,
      "apped": 3202,
      "Ġshocked": 3203,
      "ision": 3204,
      "Ġrubbed": 3205,
      "Ġbull": 3206,
      "Ġingredients": 3207,
      "reen": 3208,
      "Ġcompassion": 3209,
      "Ġbigg": 3210,
      "Ġload": 3211,
      "Ġpepper": 3212,
      "Ġencou": 3213,
      "Åĵleta": 3214,
      "ley": 3215,
      "Ġenth": 3216,
      "Ġbutterflies": 3217,
      "Ġpattern": 3218,
      "ibb": 3219,
      "Ġearly": 3220,
      "Ġagree": 3221,
      "Ġstranger": 3222,
      "Ġenvel": 3223,
      "Ġflashlight": 3224,
      "Ġita": 3225,
      "Ġthirsty": 3226,
      "Ġwheels": 3227,
      "Ġfork": 3228,
      "usi": 3229,
      "Ġdesk": 3230,
      "Ġenthusi": 3231,
      "Ġwire": 3232,
      "Ġnumbers": 3233,
      "Ġmailbox": 3234,
      "oot": 3235,
      "arsh": 3236,
      "Ġnurse": 3237,
      "Ġtem": 3238,
      "Ġdiscover": 3239,
      "Ġpup": 3240,
      "Ġgum": 3241,
      "Ġcharl": 3242,
      "Ġpeeked": 3243,
      "Ġahead": 3244,
      "Ġcomb": 3245,
      "Ġpear": 3246,
      "there": 3247,
      "Ġpoppy": 3248,
      "Ġtorn": 3249,
      "Ġpengu": 3250,
      "Ġspilled": 3251,
      "Ġrug": 3252,
      "Ġmole": 3253,
      "loo": 3254,
      "Ġorder": 3255,
      "Ġstops": 3256,
      "Ġcere": 3257,
      "Ġrece": 3258,
      "Ġcomput": 3259,
      "Ġsurf": 3260,
      "Ġenv": 3261,
      "Ġwing": 3262,
      "Ġhumble": 3263,
      "Ġpow": 3264,
      "Ġobject": 3265,
      "Ġtowers": 3266,
      "bled": 3267,
      "comfort": 3268,
      "Ġsorts": 3269,
      "Ġbent": 3270,
      "Ġanx": 3271,
      "ellig": 3272,
      "Ġsunflower": 3273,
      "Ġraven": 3274,
      "Ġintellig": 3275,
      "Ġpant": 3276,
      "Ġwarned": 3277,
      "Ġwindows": 3278,
      "Ġcounting": 3279,
      "Ġlau": 3280,
      "Ġspoke": 3281,
      "Ġcooking": 3282,
      "Ġuncomfort": 3283,
      "Ġnote": 3284,
      "Ġpale": 3285,
      "Ġuncomfortable": 3286,
      "Ġplaced": 3287,
      "iches": 3288,
      "Ġtravel": 3289,
      "Ġscale": 3290,
      "Ġbeetle": 3291,
      "Ġbadly": 3292,
      "they": 3293,
      "Ġstatue": 3294,
      "Ġolder": 3295,
      "Ġanxious": 3296,
      "Ġslides": 3297,
      "Ġcompl": 3298,
      "Ġscoot": 3299,
      "ikes": 3300,
      "Ġmush": 3301,
      "Ġbiggest": 3302,
      "Ġbeep": 3303,
      "Ġcouldna": 3304,
      "Ġflute": 3305,
      "Ġstack": 3306,
      "Ġgrowing": 3307,
      "yay": 3308,
      "Ġhurry": 3309,
      "Ġdeaf": 3310,
      "Ġtunnel": 3311,
      "Ġcelebrate": 3312,
      "Ġcrocodile": 3313,
      "Ġnail": 3314,
      "host": 3315,
      "Ġcupboard": 3316,
      "Ġvalue": 3317,
      "Ġscatter": 3318,
      "Ġcrane": 3319,
      "Ġghost": 3320,
      "Ġharmless": 3321,
      "Ġya": 3322,
      "Ġbeauty": 3323,
      "Ġsofa": 3324,
      "Ġgloom": 3325,
      "Ġshut": 3326,
      "Ġexper": 3327,
      "Ġfort": 3328,
      "Ġuniver": 3329,
      "Ġperm": 3330,
      "Ġpersistent": 3331,
      "Ġcharming": 3332,
      "Ġmuff": 3333,
      "Ġtur": 3334,
      "Ġjumps": 3335,
      "Ġgifted": 3336,
      "Ġflour": 3337,
      "Ġhung": 3338,
      "Ġyawn": 3339,
      "Ġtrick": 3340,
      "Ġrefused": 3341,
      "Ġoct": 3342,
      "Ġpony": 3343,
      "Ġcereal": 3344,
      "Ġpretending": 3345,
      "Ġcourage": 3346,
      "Ġtrack": 3347,
      "Ġneat": 3348,
      "Ġnames": 3349,
      "Ġcurt": 3350,
      "Ġcrystal": 3351,
      "Ġskip": 3352,
      "opus": 3353,
      "Ġbase": 3354,
      "Ġtriang": 3355,
      "Ġsandwiches": 3356,
      "cream": 3357,
      "Ġhan": 3358,
      "Ġvi": 3359,
      "Ġoctopus": 3360,
      "Ġsupport": 3361,
      "Ġsnuggled": 3362,
      "ices": 3363,
      "Ġcurtain": 3364,
      "par": 3365,
      "Ġsandy": 3366,
      "Ġordinary": 3367,
      "Ġdestroy": 3368,
      "Ġcamp": 3369,
      "pers": 3370,
      "Ġsett": 3371,
      "Ġchasing": 3372,
      "Ġquestion": 3373,
      "Ġpian": 3374,
      "Ġenvelope": 3375,
      "Ġcrawl": 3376,
      "Ġdrawer": 3377,
      "Ġrules": 3378,
      "Ġattract": 3379,
      "Ġblueber": 3380,
      "Ġcomputer": 3381,
      "Ġlively": 3382,
      "ince": 3383,
      "Ġsend": 3384,
      "Ġmushroom": 3385,
      "Ġcartoon": 3386,
      "Ġgloomy": 3387,
      "Ġbri": 3388,
      "Ġintelligent": 3389,
      "Ġpiano": 3390,
      "Ġsi": 3391,
      "Ġlizard": 3392,
      "aid": 3393,
      "Ġshaking": 3394,
      "Ġneedle": 3395,
      "Ġpackage": 3396,
      "ses": 3397,
      "stri": 3398,
      "Åĵthat": 3399,
      "Ġhunter": 3400,
      "ith": 3401,
      "Ġhelmet": 3402,
      "aches": 3403,
      "Ġcollar": 3404,
      "Ġparade": 3405,
      "Ġcreatures": 3406,
      "heart": 3407,
      "Ġignor": 3408,
      "ocer": 3409,
      "Ġphot": 3410,
      "Ġtwirled": 3411,
      "Ġalert": 3412,
      "Ġfireman": 3413,
      "Ġthief": 3414,
      "Ġthanks": 3415,
      "erable": 3416,
      "Ġstation": 3417,
      "anna": 3418,
      "Ġseal": 3419,
      "Ġmiserable": 3420,
      "Ġsoldier": 3421,
      "gust": 3422,
      "Ġostri": 3423,
      "Ġtask": 3424,
      "ceed": 3425,
      "Ġbicy": 3426,
      "Ġanywhere": 3427,
      "cut": 3428,
      "Ġdisgust": 3429,
      "Ġmatt": 3430,
      "Ġdug": 3431,
      "Ġtooth": 3432,
      "Ġrepe": 3433,
      "Ġjet": 3434,
      "Ġcarp": 3435,
      "Ġtrap": 3436,
      "Ġclub": 3437,
      "give": 3438,
      "Ġener": 3439,
      "Ġresist": 3440,
      "cond": 3441,
      "Ġhenry": 3442,
      "Ġignorant": 3443,
      "Ġwishes": 3444,
      "Ġturkey": 3445,
      "Ġgir": 3446,
      "iest": 3447,
      "Ġsecond": 3448,
      "Ġvide": 3449,
      "Ġbrownie": 3450,
      "ric": 3451,
      "Ġled": 3452,
      "Ġchu": 3453,
      "Ġpasta": 3454,
      "Ġeveryday": 3455,
      "Ġstickers": 3456,
      "Ġradio": 3457,
      "Ġbandage": 3458,
      "Ġscreen": 3459,
      "Ġcricket": 3460,
      "Ġbuddy": 3461,
      "aking": 3462,
      "Ġfurt": 3463,
      "Ġshine": 3464,
      "Ġcharlie": 3465,
      "Ġhelpless": 3466,
      "Ġcube": 3467,
      "Ġbounced": 3468,
      "Ġtrash": 3469,
      "Ġannie": 3470,
      "Ġjeep": 3471,
      "Ġcocoa": 3472,
      "Ġchubby": 3473,
      "Ġpigeon": 3474,
      "Ġleash": 3475,
      "Ġpracticed": 3476,
      "Ġgor": 3477,
      "Ġotter": 3478,
      "Ġchance": 3479,
      "Ġletters": 3480,
      "Ġattractive": 3481,
      "Ġpapa": 3482,
      "gie": 3483,
      "Ġimpat": 3484,
      "ips": 3485,
      "Ġthread": 3486,
      "keys": 3487,
      "Ġaw": 3488,
      "Ġstirred": 3489,
      "Ġcompassionate": 3490,
      "Ġstretched": 3491,
      "Ġstretch": 3492,
      "Ġfurther": 3493,
      "Ġpun": 3494,
      "Ġsomewhere": 3495,
      "Ġsummer": 3496,
      "Ġtrump": 3497,
      "coli": 3498,
      "Ġdistur": 3499,
      "Ġdecorate": 3500,
      "orable": 3501,
      "Ġjug": 3502,
      "Ġjerry": 3503,
      "Ġtweetie": 3504,
      "Ġbrighter": 3505,
      "Ġtire": 3506,
      "Ġhipp": 3507,
      "Ġimpatient": 3508,
      "Ġsteps": 3509,
      "Ġcase": 3510,
      "Ġcompetitive": 3511,
      "Ġwaff": 3512,
      "arian": 3513,
      "Ġrespectful": 3514,
      "Ġsucceed": 3515,
      "Ġtroubled": 3516,
      "Ġbroc": 3517,
      "Ġmug": 3518,
      "Ġpressed": 3519,
      "Ġdisturb": 3520,
      "Ġcandle": 3521,
      "Ġitself": 3522,
      "Ġbroccoli": 3523,
      "Ġleop": 3524,
      "Ġattic": 3525,
      "Ġquack": 3526,
      "Ġafterno": 3527,
      "Ġallig": 3528,
      "Ġspir": 3529,
      "Ġrestless": 3530,
      "Ġstarts": 3531,
      "Ġpor": 3532,
      "kers": 3533,
      "Ġquar": 3534,
      "Ġknock": 3535,
      "Ġdess": 3536,
      "Ġsweetheart": 3537,
      "Ġcarpet": 3538,
      "Ġnuts": 3539,
      "Ġribb": 3540,
      "Ġadorable": 3541,
      "aked": 3542,
      "Ġlilly": 3543,
      "Ġshoe": 3544,
      "aurant": 3545,
      "Ġanyway": 3546,
      "Ġdisgusting": 3547,
      "Ġfearful": 3548,
      "Ġshouts": 3549,
      "Ġvine": 3550,
      "Ġrestaurant": 3551,
      "Ġpants": 3552,
      "Ġtray": 3553,
      "aff": 3554,
      "Ġostrich": 3555,
      "Ġscrew": 3556,
      "Ġten": 3557,
      "Ġenvious": 3558,
      "Ġcards": 3559,
      "opter": 3560,
      "Ġdistant": 3561,
      "icopter": 3562,
      "Ġfilthy": 3563,
      "Ġenthusiastic": 3564,
      "Ġafternoon": 3565,
      "Ġgiggle": 3566,
      "Ġhelicopter": 3567,
      "Ġcap": 3568,
      "Ġdanny": 3569,
      "night": 3570,
      "Ġmonkeys": 3571,
      "Ġhook": 3572,
      "Ġlee": 3573,
      "Ġtrumpet": 3574,
      "Ġcooked": 3575,
      "ime": 3576,
      "Ġsoar": 3577,
      "Ġrub": 3578,
      "Ġpoem": 3579,
      "Ġsandbox": 3580,
      "Ġpaws": 3581,
      "aroo": 3582,
      "Ġkang": 3583,
      "case": 3584,
      "Ġants": 3585,
      "ob": 3586,
      "Ġlistening": 3587,
      "Ġscooter": 3588,
      "Ġspirit": 3589,
      "Ġnowhere": 3590,
      "Ġadmire": 3591,
      "Ġkangaroo": 3592,
      "Ġharsh": 3593,
      "Ġbelt": 3594,
      "Ġmeas": 3595,
      "Ġsquash": 3596,
      "Ġpipe": 3597,
      "Ġbackpack": 3598,
      "Ġbatht": 3599,
      "Ġlightning": 3600,
      "Ġcountry": 3601,
      "Ġexplain": 3602,
      "Ġsent": 3603,
      "Ġmath": 3604,
      "Ġleopard": 3605,
      "Ġunpack": 3606,
      "cycle": 3607,
      "Ġviol": 3608,
      "Ġcows": 3609,
      "Ġsince": 3610,
      "opl": 3611,
      "eropl": 3612,
      "Ġbathtub": 3613,
      "Ġcomet": 3614,
      "Ġspell": 3615,
      "Ġlid": 3616,
      "Ġaeropl": 3617,
      "Ġquite": 3618,
      "Ġbarking": 3619,
      "Ġspeak": 3620,
      "stairs": 3621,
      "Ġvol": 3622,
      "Ġrepair": 3623,
      "Ġfirework": 3624,
      "Ġgorilla": 3625,
      "Ġdona": 3626,
      "Ġmaria": 3627,
      "Ġhappier": 3628,
      "Ġbicycle": 3629,
      "Ġsepar": 3630,
      "Ġjess": 3631,
      "Ġfle": 3632,
      "Ġjellyfish": 3633,
      "imi": 3634,
      "play": 3635,
      "Ġpanda": 3636,
      "Ġhuman": 3637,
      "Ġstared": 3638,
      "Ġmodest": 3639,
      "Ġbreat": 3640,
      "Ġmule": 3641,
      "Ġdidna": 3642,
      "Ġmessage": 3643,
      "Ġgrabs": 3644,
      "Ġmillie": 3645,
      "Ġwhiskers": 3646,
      "Ġhippo": 3647,
      "Ġgiven": 3648,
      "Ġyogurt": 3649,
      "Ġmeat": 3650,
      "Ġkate": 3651,
      "Ġsort": 3652,
      "hood": 3653,
      "Ġimpro": 3654,
      "Ġfive": 3655,
      "Ġur": 3656,
      "Ġoat": 3657,
      "Ġsalt": 3658,
      "Ġdessert": 3659,
      "Ġpaid": 3660,
      "Ġalligator": 3661,
      "Ġfinds": 3662,
      "year": 3663,
      "xi": 3664,
      "Ġobser": 3665,
      "Ġhedge": 3666,
      "Ġcats": 3667,
      "Ġpal": 3668,
      "Ġwheat": 3669,
      "Ġsplit": 3670,
      "Ġviolin": 3671,
      "Ġmelon": 3672,
      "Ġrescue": 3673,
      "Ġped": 3674,
      "Ġpulls": 3675,
      "Ġtripped": 3676,
      "Ġcact": 3677,
      "Ġhowever": 3678,
      "Ġpilot": 3679,
      "Ġsize": 3680,
      "Ġprov": 3681,
      "Ġholes": 3682,
      "ded": 3683,
      "ogn": 3684,
      "ci": 3685,
      "Ġharry": 3686,
      "Ġswinging": 3687,
      "Ġroared": 3688,
      "Ġshade": 3689,
      "Ġrice": 3690,
      "Ġforgave": 3691,
      "Ġriding": 3692,
      "Ġpurse": 3693,
      "Ġhall": 3694,
      "Ġbin": 3695,
      "Ġrecogn": 3696,
      "Ġmimi": 3697,
      "Ġpushing": 3698,
      "Ġbikes": 3699,
      "Ġtriangle": 3700,
      "Ġsheet": 3701,
      "Ġinse": 3702,
      "ah": 3703,
      "Ġorganize": 3704,
      "Ġmild": 3705,
      "Ġbehave": 3706,
      "ophone": 3707,
      "Ġstarting": 3708,
      "Ġraft": 3709,
      "Ġsle": 3710,
      "Ġscold": 3711,
      "used": 3712,
      "Ġhaircut": 3713,
      "Ġlions": 3714,
      "Ġsock": 3715,
      "Ġbrus": 3716,
      "Ġsilver": 3717,
      "Ġtuna": 3718,
      "Åĵyou": 3719,
      "Ġenergy": 3720,
      "Ġrod": 3721,
      "ipping": 3722,
      "Ġknot": 3723,
      "Ġbananas": 3724,
      "bul": 3725,
      "Ġeither": 3726,
      "Ġwallet": 3727,
      "Ġbears": 3728,
      "Ġcactus": 3729,
      "Ġfrowned": 3730,
      "Ġlear": 3731,
      "aled": 3732,
      "Ġvolcan": 3733,
      "Ġlearnt": 3734,
      "Ġtrains": 3735,
      "chy": 3736,
      "Ġporch": 3737,
      "Ġseeing": 3738,
      "Ġboots": 3739,
      "Ġjokes": 3740,
      "seum": 3741,
      "Ġchalk": 3742,
      "Ġvolcano": 3743,
      "Ġpole": 3744,
      "ebook": 3745,
      "Ġnotebook": 3746,
      "Ġlend": 3747,
      "Ġended": 3748,
      "Ġsticker": 3749,
      "Ġappre": 3750,
      "Ġmuseum": 3751,
      "ucked": 3752,
      "Ġevening": 3753,
      "Ġtaxi": 3754,
      "Ġpapers": 3755,
      "Ġpalace": 3756,
      "Ġappreci": 3757,
      "inde": 3758,
      "Ġprun": 3759,
      "Ġrolling": 3760,
      "Ġstrawberry": 3761,
      "Ġchain": 3762,
      "Ġsweater": 3763,
      "Ġjudge": 3764,
      "Ġink": 3765,
      "Ġeras": 3766,
      "Ġpad": 3767,
      "Ġshopkeeper": 3768,
      "Ġsteak": 3769,
      "Ġcel": 3770,
      "Ġreinde": 3771,
      "Ġbarrel": 3772,
      "Ġmicr": 3773,
      "Ġshakes": 3774,
      "Ġsprink": 3775,
      "ffe": 3776,
      "iron": 3777,
      "Ġtwink": 3778,
      "Ġtony": 3779,
      "Ġavoc": 3780,
      "icer": 3781,
      "Ġlaund": 3782,
      "ffee": 3783,
      "ooped": 3784,
      "Ġclimbing": 3785,
      "urch": 3786,
      "Ġalive": 3787,
      "Ġsmells": 3788,
      "Ġneighbour": 3789,
      "Ġmagnet": 3790,
      "Ġlaundry": 3791,
      "Ġbul": 3792,
      "inking": 3793,
      "Ġtroph": 3794,
      "Ġclapping": 3795,
      "Ġputting": 3796,
      "Ġtube": 3797,
      "Ġsoftly": 3798,
      "Ġimagine": 3799,
      "iling": 3800,
      "Ġsailor": 3801,
      "Ġgoal": 3802,
      "Ġmicrophone": 3803,
      "Ġpushes": 3804,
      "Ġvisited": 3805,
      "Ġtricks": 3806,
      "Ġjames": 3807,
      "Ġpenguin": 3808,
      "Ġshield": 3809,
      "Ġdrawings": 3810,
      "Ġhive": 3811,
      "Ġpit": 3812,
      "Ġfalling": 3813,
      "Ġcolours": 3814,
      "Ġairport": 3815,
      "Ġleaned": 3816,
      "Ġshelter": 3817,
      "Ġzoomed": 3818,
      "Ġshovel": 3819,
      "Ġcoffee": 3820,
      "Ġquarrel": 3821,
      "Ġreindeer": 3822,
      "Ġpeek": 3823,
      "Ġbelongs": 3824,
      "Ġsaus": 3825,
      "Ġrhin": 3826,
      "Ġchecked": 3827,
      "Ġinsist": 3828,
      "Ġoy": 3829,
      "Ġambul": 3830,
      "Ġwinter": 3831,
      "Ġdisplay": 3832,
      "Ġmarched": 3833,
      "Ġpair": 3834,
      "cast": 3835,
      "Ġaeroplane": 3836,
      "ense": 3837,
      "Ġdive": 3838,
      "Ġgrapes": 3839,
      "Ġcelery": 3840,
      "Ġpolish": 3841,
      "Ġavail": 3842,
      "Ġdishes": 3843,
      "Ġyach": 3844,
      "Ġkat": 3845,
      "Ġwool": 3846,
      "Ġbarks": 3847,
      "Ġmaggie": 3848,
      "Ġplanet": 3849,
      "Ġfields": 3850,
      "Ġloop": 3851,
      "Ġsir": 3852,
      "Ġart": 3853,
      "Ġsandcast": 3854,
      "Ġtrophy": 3855,
      "Ġambulance": 3856,
      "Ġsoil": 3857,
      "Ġapologized": 3858,
      "Ġskill": 3859,
      "Ġelev": 3860,
      "Ġhoping": 3861,
      "Ġcostume": 3862,
      "Ġfisher": 3863,
      "Ġonion": 3864,
      "Ġrubber": 3865,
      "Ġmarry": 3866,
      "Ġfeelings": 3867,
      "Ġfilm": 3868,
      "Ġdrops": 3869,
      "scope": 3870,
      "Ġshort": 3871,
      "Ġmen": 3872,
      "Ġske": 3873,
      "Ġunhappy": 3874,
      "squ": 3875,
      "Ġrever": 3876,
      "Ġmedal": 3877,
      "Ġcord": 3878,
      "Ġstom": 3879,
      "Ġpage": 3880,
      "Ġyacht": 3881,
      "Ġunlock": 3882,
      "anic": 3883,
      "Ġavailable": 3884,
      "Ġjourn": 3885,
      "Ġraining": 3886,
      "âĤ¬âĢľ": 3887,
      "Ġeraser": 3888,
      "chanic": 3889,
      "Ġminute": 3890,
      "Ġleta": 3891,
      "Ġelevator": 3892,
      "Ġbasketball": 3893,
      "Ġmechanic": 3894,
      "ected": 3895,
      "Ġflies": 3896,
      "Ġspike": 3897,
      "Ġbaking": 3898,
      "ages": 3899,
      "Ġperfectly": 3900,
      "Ġinclu": 3901,
      "Ġja": 3902,
      "Ġdiary": 3903,
      "Ġtap": 3904,
      "Ġcapt": 3905,
      "Ġcomplete": 3906,
      "Ġappl": 3907,
      "right": 3908,
      "Ġhadn": 3909,
      "Ġeagerly": 3910,
      "nam": 3911,
      "Ġinsect": 3912,
      "ron": 3913,
      "Ġcardboard": 3914,
      "Ġquit": 3915,
      "Ġclosely": 3916,
      "Ġshrimp": 3917,
      "Ġmagaz": 3918,
      "Ġplayer": 3919,
      "dad": 3920,
      "Ġgod": 3921,
      "reeze": 3922,
      "Ġvend": 3923,
      "Ġjournal": 3924,
      "Ġfog": 3925,
      "Ġsmith": 3926,
      "Ġglove": 3927,
      "Ġdisag": 3928,
      "iture": 3929,
      "urniture": 3930,
      "Ġtut": 3931,
      "Ġclara": 3932,
      "Ġfrogs": 3933,
      "Ġfurniture": 3934,
      "Ġchurch": 3935,
      "Ġtub": 3936,
      "Ġstuffed": 3937,
      "Ġimagination": 3938,
      "Ġwelcom": 3939,
      "Ġskull": 3940,
      "gen": 3941,
      "Ġjul": 3942,
      "Ġbreaks": 3943,
      "Ġtreasures": 3944,
      "Ġcooler": 3945,
      "Ġyoga": 3946,
      "Ġwife": 3947,
      "Ġfreez": 3948,
      "Ġpeach": 3949,
      "Ġcounter": 3950,
      "Ġfactor": 3951,
      "Ġheaded": 3952,
      "Ġlie": 3953,
      "bec": 3954,
      "place": 3955,
      "Ġfootball": 3956,
      "ween": 3957,
      "Ġflame": 3958,
      "Ġcoal": 3959,
      "Ġoffer": 3960,
      "Ġgolf": 3961,
      "ito": 3962,
      "Ġsunset": 3963,
      "Ġbetween": 3964,
      "Ġfactory": 3965,
      "Ġcheek": 3966,
      "Ġswitch": 3967,
      "Ġvroom": 3968,
      "Ġsym": 3969,
      "ifl": 3970,
      "Ġoil": 3971,
      "Ġmosqu": 3972,
      "Ġpainter": 3973,
      "Ġrag": 3974,
      "Ġpine": 3975,
      "Ġswung": 3976,
      "ides": 3977,
      "Ġhors": 3978,
      "Ġcaul": 3979,
      "Ġcups": 3980,
      "Ġmotorcycle": 3981,
      "Ġcaulifl": 3982,
      "Ġpirates": 3983,
      "Ġshouldn": 3984,
      "ories": 3985,
      "Ġshouting": 3986,
      "Ġhut": 3987,
      "..": 3988,
      "Ġornam": 3989,
      "Ġornament": 3990,
      "Ġhotel": 3991,
      "Ġsung": 3992,
      "Ġmixer": 3993,
      "Ġmop": 3994,
      "Ġvendor": 3995,
      "Ġblowing": 3996,
      "Ġmosquito": 3997,
      "affe": 3998,
      "Ġfolder": 3999,
      "Ġfisherman": 4000,
      "Ġlaser": 4001,
      "Ġskelet": 4002,
      "ccer": 4003,
      "Ġvideo": 4004,
      "your": 4005,
      "izes": 4006,
      "bol": 4007,
      "Ġthrows": 4008,
      "Ġsoccer": 4009,
      "Ġheads": 4010,
      "Ġcreated": 4011,
      "Ġframe": 4012,
      "Ġgreed": 4013,
      "Ġgiraffe": 4014,
      "Ġcable": 4015,
      "Ġsymbol": 4016,
      "angu": 4017,
      "Ġwipe": 4018,
      "Ġcushion": 4019,
      "Ġhorses": 4020,
      "Ġcauliflower": 4021,
      "Ġlangu": 4022,
      "Ġrot": 4023,
      "zzy": 4024,
      "oceros": 4025,
      "Ġpowder": 4026,
      "Ġpopped": 4027,
      "Ġanch": 4028,
      "Ġbattery": 4029,
      "Ġrhinoceros": 4030,
      "Ġfishing": 4031,
      "Ġattention": 4032,
      "Ġax": 4033,
      "sses": 4034,
      "Ġstud": 4035,
      "Ġweather": 4036,
      "render": 4037,
      "Ġmaze": 4038,
      "Ġforgotten": 4039,
      "ait": 4040,
      "Ġtrail": 4041,
      "Ġlives": 4042,
      "uc": 4043,
      "Ġcelebrated": 4044,
      "Ġflea": 4045,
      "rod": 4046,
      "Ġpoke": 4047,
      "Ġsurround": 4048,
      "Ġdear": 4049,
      "Ġia": 4050,
      "Ġsneak": 4051,
      "Ġluckily": 4052,
      "Ġwaving": 4053,
      "Ġphoto": 4054,
      "Ġslept": 4055,
      "Ġkingdom": 4056,
      "Ġintrod": 4057,
      "unately": 4058,
      "Ġswamp": 4059,
      "ple": 4060,
      "Ġpoint": 4061,
      "Ġiron": 4062,
      "Ġtutor": 4063,
      "Ġencoura": 4064,
      "Ġpoints": 4065,
      "Ġjazz": 4066,
      "Ġglowing": 4067,
      "Ġrosie": 4068,
      "Ġbreeze": 4069,
      "Ġfireplace": 4070,
      "Ġskeleton": 4071,
      "Ġclaw": 4072,
      "Ġvet": 4073,
      "ckey": 4074,
      "Ġsub": 4075,
      "lasses": 4076,
      "Ġmemories": 4077,
      "Ġsunglasses": 4078,
      "Ġanchor": 4079,
      "Ġsquirrels": 4080,
      "Ġig": 4081,
      "Ġstreng": 4082,
      "Ġmistakes": 4083,
      "Ġvest": 4084,
      "Ġreve": 4085,
      "Ġdancer": 4086,
      "Ġhockey": 4087,
      "Ġchickens": 4088,
      "ef": 4089,
      "max": 4090,
      "Ġbaseball": 4091,
      "hero": 4092,
      "Ġcomplain": 4093,
      "Ġtina": 4094,
      "Ġpetals": 4095,
      "spap": 4096,
      "Ġnewspap": 4097,
      "te": 4098,
      "Ġzipper": 4099,
      "Ġaxe": 4100,
      "Ġigloo": 4101,
      "Ġgreedy": 4102,
      "Ġstrength": 4103,
      "Ġmicro": 4104,
      "Ġceiling": 4105,
      "Ġgrin": 4106,
      "Ġsuperhero": 4107,
      "chie": 4108,
      "Ġhanging": 4109,
      "Ġgolden": 4110,
      "Ġsniffed": 4111,
      "Ġnapkin": 4112,
      "Ġargue": 4113,
      "Ġknob": 4114,
      "Ġtrave": 4115,
      "ache": 4116,
      "Ġmusician": 4117,
      "Ġstaff": 4118,
      "Ġbury": 4119,
      "Ġwriting": 4120,
      "Ġtemple": 4121,
      "Ġskirt": 4122,
      "Ġimmed": 4123,
      "Ġimmedi": 4124,
      "Ġmicroscope": 4125,
      "Ġpuddles": 4126,
      "Ġchess": 4127,
      "Ġunif": 4128,
      "Ġlime": 4129,
      "Ġbulb": 4130,
      "Ġtheater": 4131,
      "Ġdiscu": 4132,
      "Ġimmediately": 4133,
      "Ġbouncing": 4134,
      "was": 4135,
      "Ġsurrender": 4136,
      "Ġseas": 4137,
      "Ġuniform": 4138,
      "Ġradish": 4139,
      "Ġeaten": 4140,
      "Ġnovel": 4141,
      "Ġslipper": 4142,
      "Ġminer": 4143,
      "Ġquietly": 4144,
      "Ġshoulder": 4145,
      "Ġmeeting": 4146,
      "Ġpist": 4147,
      "Ġwelcomed": 4148,
      "ssible": 4149,
      "Ġinvest": 4150,
      "Ġthrowing": 4151,
      "Ġpistol": 4152,
      "Ġslippery": 4153,
      "chair": 4154,
      "Ġlawy": 4155,
      "Ġplastic": 4156,
      "arm": 4157,
      "Ġflapped": 4158,
      "Ġaccepted": 4159,
      "Ġinvestig": 4160,
      "Ġfought": 4161,
      "Ġdoors": 4162,
      "Ġdoggy": 4163,
      "Ġlotion": 4164,
      "Ġduring": 4165,
      "reek": 4166,
      "Ġcalls": 4167,
      "Ġkayak": 4168,
      "Ġavocado": 4169,
      "Ġcreek": 4170,
      "erc": 4171,
      "Ġcob": 4172,
      "house": 4173,
      "Ġmattress": 4174,
      "Ġsticky": 4175,
      "ex": 4176,
      "wait": 4177,
      "Ġmoves": 4178,
      "aces": 4179,
      "Ġreef": 4180,
      "Ġfreezer": 4181,
      "Ġsuff": 4182,
      "Ġmakeup": 4183,
      "Ġcared": 4184,
      "Ġexerc": 4185,
      "Ġmystery": 4186,
      "ison": 4187,
      "Ġbye": 4188,
      "Ġsnowy": 4189,
      "Ġfauc": 4190,
      "ler": 4191,
      "Ġarmchair": 4192,
      "Ġwigg": 4193,
      "Ġoak": 4194,
      "Ġnews": 4195,
      "inked": 4196,
      "Ġoyster": 4197,
      "ucky": 4198,
      "Ġcherries": 4199,
      "Ġtug": 4200,
      "timmy": 4201,
      "Ġsailing": 4202,
      "Ġinvestigate": 4203,
      "Åĵita": 4204,
      "Ġregret": 4205,
      "Ġsplashing": 4206,
      "Ġbeef": 4207,
      "Ġwags": 4208,
      "washer": 4209,
      "Ġfaucet": 4210,
      "Ġchim": 4211,
      "Ġapplau": 4212,
      "Ġticket": 4213,
      "Ġtoil": 4214,
      "Ġdishwasher": 4215,
      "Ġcrib": 4216,
      "Ġzo": 4217,
      "Ġcobwe": 4218,
      "Ġcollected": 4219,
      "Ġworth": 4220,
      "Ġmagazine": 4221,
      "Ġpresents": 4222,
      "Ġpassport": 4223,
      "ding": 4224,
      "Ġhappens": 4225,
      "Ġprevent": 4226,
      "Ġsprayed": 4227,
      "sit": 4228,
      "esday": 4229,
      "Ġveil": 4230,
      "Ġalarm": 4231,
      "Ġcastles": 4232,
      "act": 4233,
      "Ġentered": 4234,
      "Ġtear": 4235,
      "ouch": 4236,
      "thanks": 4237,
      "Ġshrugged": 4238,
      "Ġseparate": 4239,
      "Ġfreddy": 4240,
      "Ġscolded": 4241,
      "Ġweigh": 4242,
      "Ġmint": 4243,
      "Ġrake": 4244,
      "Ġtoilet": 4245,
      "Ġlawyer": 4246,
      "Ġraz": 4247,
      "Ġmuffin": 4248,
      "Ġcaptain": 4249,
      "lend": 4250,
      "Ġblankets": 4251,
      "Ġattach": 4252,
      "Ġflutter": 4253,
      "Ġchimney": 4254,
      "Ġtucked": 4255,
      "Ġyield": 4256,
      "Ġcandles": 4257,
      "Ġignored": 4258,
      "Ġsparkle": 4259,
      "Ġchoice": 4260,
      "Ġhopes": 4261,
      "ived": 4262,
      "Ġcoats": 4263,
      "Ġkisses": 4264,
      "Ġappro": 4265,
      "Ġfollows": 4266,
      "Ġclassroom": 4267,
      "Ġapart": 4268,
      "Ġeasily": 4269,
      "Ġruby": 4270,
      "ives": 4271,
      "Ġdisappear": 4272,
      "Ġmissile": 4273,
      "omed": 4274,
      "Ġchairs": 4275,
      "Ġletting": 4276,
      "Ġkeeping": 4277,
      "Ġburned": 4278,
      "mand": 4279,
      "Ġstraight": 4280,
      "Ġplanes": 4281,
      "Ġlanguage": 4282,
      "Ġbother": 4283,
      "Ġmilly": 4284,
      "Ġcane": 4285,
      "Ġaut": 4286,
      "eterin": 4287,
      "eterinarian": 4288,
      "Ġward": 4289,
      "Ġdressed": 4290,
      "Ġcaring": 4291,
      "men": 4292,
      "Ġcell": 4293,
      "Ġtrusted": 4294,
      "mer": 4295,
      "Ġjewelry": 4296,
      "Ġsizes": 4297,
      "Ġveterinarian": 4298,
      "Ġrise": 4299,
      "Ġteleph": 4300,
      "Ġclaws": 4301,
      "Ġshower": 4302,
      "Ġwardrobe": 4303,
      "Ġolive": 4304,
      "sam": 4305,
      "Ġblinked": 4306,
      "iday": 4307,
      "Ġrequ": 4308,
      "Ġwed": 4309,
      "Ġstable": 4310,
      "Ġpuzzles": 4311,
      "Ġlawn": 4312,
      "Ġcabinet": 4313,
      "Ġcrossed": 4314,
      "Ġpur": 4315,
      "Ġtrade": 4316,
      "Ġbookshe": 4317,
      "ement": 4318,
      "Ġnewspaper": 4319,
      "Ġtelephone": 4320,
      "vision": 4321,
      "Ġstro": 4322,
      "Ġincre": 4323,
      "Ġtornado": 4324,
      "Ġisn": 4325,
      "mend": 4326,
      "Ġsigh": 4327,
      "Ġrooms": 4328,
      "Ġperfu": 4329,
      "because": 4330,
      "Ġopera": 4331,
      "Ġrazor": 4332,
      "Ġinf": 4333,
      "ival": 4334,
      "Ġblueberries": 4335,
      "Ġbookcase": 4336,
      "anges": 4337,
      "Ġsubway": 4338,
      "ampoo": 4339,
      "Ġvalley": 4340,
      "Ġamazement": 4341,
      "Ġlumber": 4342,
      "ety": 4343,
      "Ġgrill": 4344,
      "Ġrecom": 4345,
      "Ġsqueezed": 4346,
      "Ġsteam": 4347,
      "Ġmustache": 4348,
      "Ġrecommend": 4349,
      "Ġbookshelf": 4350,
      "Ġshampoo": 4351,
      "Ġsqueeze": 4352,
      "Ġdelay": 4353,
      "Ġpra": 4354,
      "Ġgym": 4355,
      "Ġfollowing": 4356,
      "Ġcrawling": 4357,
      "Ġblood": 4358,
      "Ġtelevision": 4359,
      "Ġcrow": 4360,
      "Ġrequest": 4361,
      "Ġcliff": 4362,
      "Ġhol": 4363,
      "Ġblouse": 4364,
      "Ġunfort": 4365,
      "Ġperfume": 4366,
      "Ġspear": 4367,
      "any": 4368,
      "Ġpoked": 4369,
      "Ġfile": 4370,
      "âĤ¬.": 4371,
      "Ġholiday": 4372,
      "iction": 4373,
      "Ġpinch": 4374,
      "Ġmatches": 4375,
      "sara": 4376,
      "Ġlicks": 4377,
      "Ġexperience": 4378,
      "Ġserve": 4379,
      "Ġimprove": 4380,
      "Ġfest": 4381,
      "Ġfuel": 4382,
      "Ġdemand": 4383,
      "Ġringing": 4384,
      "omes": 4385,
      "Ġhelper": 4386,
      "whe": 4387,
      "Ġshrink": 4388,
      "ictionary": 4389,
      "Ġberry": 4390,
      "Ġgear": 4391,
      "hy": 4392,
      "Ġribbon": 4393,
      "Ġwaste": 4394,
      "Ġdictionary": 4395,
      "Ġrow": 4396,
      "Ġunfortunately": 4397,
      "Ġworms": 4398,
      "welcome": 4399,
      "Ġcrash": 4400,
      "Ġgrowled": 4401,
      "Ġsneeze": 4402,
      "Ġbegged": 4403,
      "Ġbirdc": 4404,
      "Ġrabbits": 4405,
      "Ġprop": 4406,
      "Ġideas": 4407,
      "Ġwarmth": 4408,
      "Ġalright": 4409,
      "Ġkatie": 4410,
      "Ġx": 4411,
      "Ġinvite": 4412,
      "ores": 4413,
      "Ġbirdcage": 4414,
      "Ġbelow": 4415,
      "hic": 4416,
      "Ġvehic": 4417,
      "Ġcub": 4418,
      "Ġcalend": 4419,
      "Ġweep": 4420,
      "Ġyucky": 4421,
      "lier": 4422,
      "Ġinstr": 4423,
      "Ġfallen": 4424,
      "did": 4425,
      "Ġmarried": 4426,
      "Ġrail": 4427,
      "Ġbang": 4428,
      "Ġmoments": 4429,
      "Ġbravely": 4430,
      "Ġpastry": 4431,
      "Ġlaught": 4432,
      "Ġrefre": 4433,
      "Ġkneel": 4434,
      "Ġoas": 4435,
      "Åĵno": 4436,
      "Ġstruct": 4437,
      "Ġenter": 4438,
      "Ġstructure": 4439,
      "Ġsurprises": 4440,
      "Ġsafety": 4441,
      "ups": 4442,
      "Ġoasis": 4443,
      "Ġble": 4444,
      "Ġcalendar": 4445,
      "Ġlaughter": 4446,
      "Ġunderstanding": 4447,
      "Ġwandered": 4448,
      "Ġroot": 4449,
      "Ġsnap": 4450,
      "Ġsparkles": 4451,
      "Ġjunk": 4452,
      "ising": 4453,
      "Ġhurting": 4454,
      "Ġdire": 4455,
      "Ġdrain": 4456,
      "Ġpages": 4457,
      "Ġhearts": 4458,
      "Ġprep": 4459,
      "omeday": 4460,
      "Ġfloat": 4461,
      "Ġollie": 4462,
      "Ġairpl": 4463,
      "Ġautom": 4464,
      "Ġharb": 4465,
      "Ġitem": 4466,
      "Ġautomob": 4467,
      "Ġbuckle": 4468,
      "Ġreverse": 4469,
      "Ġapron": 4470,
      "Ġreaches": 4471,
      "Ġbathe": 4472,
      "Ġstrawberries": 4473,
      "Ġburied": 4474,
      "Ġsomeday": 4475,
      "Ġadmir": 4476,
      "Ġwhip": 4477,
      "chel": 4478,
      "Ġmys": 4479,
      "Ġignore": 4480,
      "Ġmyself": 4481,
      "Ġrelaxed": 4482,
      "Ġdirect": 4483,
      "Ġsandcastle": 4484,
      "Ġskills": 4485,
      "Ġplates": 4486,
      "Ġfestival": 4487,
      "Ġquiz": 4488,
      "Ġinvit": 4489,
      "'ve": 4490,
      "Ġspade": 4491,
      "Ġasht": 4492,
      "Ġashtray": 4493,
      "Ġsteve": 4494,
      "aw": 4495,
      "Ġbeamed": 4496,
      "'.": 4497,
      "Ġsnapped": 4498,
      "riger": 4499,
      "Ġrachel": 4500,
      "Ġearlier": 4501,
      "Ġraise": 4502,
      "Ġrefriger": 4503,
      "cakes": 4504,
      "Ġsocks": 4505,
      "Ġvac": 4506,
      "Ġweap": 4507,
      "Ġreceived": 4508,
      "Ġlic": 4509,
      "Ġwag": 4510,
      "Ġrefrigerator": 4511,
      "Ġmass": 4512,
      "Ġtong": 4513,
      "Ġdare": 4514,
      "Ġharbor": 4515,
      "Ġspots": 4516,
      "Ġteaching": 4517,
      "Ġbetsy": 4518,
      "Ġmodel": 4519,
      "yuck": 4520,
      "Ġthumb": 4521,
      "Ġsparkling": 4522,
      "Ġsupply": 4523,
      "Ġsaving": 4524,
      "Ġvanished": 4525,
      "Ġinsisted": 4526,
      "Ġjail": 4527,
      "Ġbalan": 4528,
      "Ġbumped": 4529,
      "pare": 4530,
      "Ġwaffle": 4531,
      "Ġspending": 4532,
      "Ġjew": 4533,
      "Ġjewels": 4534,
      "Ġdried": 4535,
      "Ġprepare": 4536,
      "Ġblackboard": 4537,
      "ission": 4538,
      "Ġboot": 4539,
      "Ġnone": 4540,
      "ium": 4541,
      "Ġscattered": 4542,
      "Ġtoes": 4543,
      "igail": 4544,
      "Ġfro": 4545,
      "Ġscooped": 4546,
      "Ġsettled": 4547,
      "Ġbreathe": 4548,
      "Ġpermission": 4549,
      "Ġfrank": 4550,
      "Ġknown": 4551,
      "Ġencouraged": 4552,
      "Ġres": 4553,
      "amber": 4554,
      "Ġyawned": 4555,
      "use": 4556,
      "Ġdav": 4557,
      "Ġbathrobe": 4558,
      "ab": 4559,
      "Ġremain": 4560,
      "Ġachie": 4561,
      "Ġdestroyed": 4562,
      "ring": 4563,
      "Ġhanger": 4564,
      "Ġtease": 4565,
      "Ġlemonade": 4566,
      "Ġhardly": 4567,
      "Ġreplace": 4568,
      "Ġpride": 4569,
      "Ġpulling": 4570,
      "Ġabigail": 4571,
      "Ġmall": 4572,
      "antly": 4573,
      "Ġport": 4574,
      "Ġbeans": 4575,
      "Ġremove": 4576,
      "sters": 4577,
      "Ġsits": 4578,
      "Ġdecorations": 4579,
      "Ġhate": 4580,
      "Ġcuddled": 4581,
      "Ġafterwards": 4582,
      "Ġlicense": 4583,
      "Ġwiz": 4584,
      "Ġsimp": 4585,
      "Ġwashing": 4586,
      "Ġnation": 4587,
      "Ġwine": 4588,
      "Ġrespons": 4589,
      "Ġpraised": 4590,
      "Ġchirping": 4591,
      "Ġmention": 4592,
      "Ġwisdom": 4593,
      "Ġequ": 4594,
      "Ġhits": 4595,
      "xture": 4596,
      "Ġsuffer": 4597,
      "Ġappreciate": 4598,
      "Ġpatiently": 4599,
      "Ġfastest": 4600,
      "Ġbuzzing": 4601,
      "Ġdresses": 4602,
      "Ġsnowball": 4603,
      "Ġautomobile": 4604,
      "die": 4605,
      "Ġdavid": 4606,
      "Ġcrun": 4607,
      "Ġbleed": 4608,
      "nies": 4609,
      "sity": 4610,
      "Ġdigg": 4611,
      "asp": 4612,
      "Ġdestination": 4613,
      "Ġlabel": 4614,
      "Ġtaller": 4615,
      "Ġpalm": 4616,
      "Ġhomes": 4617,
      "Ġflav": 4618,
      "Ġglo": 4619,
      "Ġclimbs": 4620,
      "Ġhesit": 4621,
      "Ġscore": 4622,
      "Ġshot": 4623,
      "Ġsausage": 4624,
      "Ġrhy": 4625,
      "Ġdigging": 4626,
      "Ġbelieved": 4627,
      "Ġapproached": 4628,
      "fied": 4629,
      "Ġinfant": 4630,
      "Ġwizard": 4631,
      "Ġtore": 4632,
      "Ġbrain": 4633,
      "Ġrestore": 4634,
      "Ġdeeper": 4635,
      "Ġfrost": 4636,
      "Ġpoison": 4637,
      "Ġmitten": 4638,
      "Ġproper": 4639,
      "Ġhers": 4640,
      "Ġheat": 4641,
      "Ġchamber": 4642,
      "Ġstruggling": 4643,
      "Ġcobweb": 4644,
      "Ġrust": 4645,
      "Ġsport": 4646,
      "Ġupstairs": 4647,
      "Ġcherry": 4648,
      "Ġhills": 4649,
      "Ġfiref": 4650,
      "Ġuniverse": 4651,
      "Ġdifferen": 4652,
      "Ġpunish": 4653,
      "Ġtongue": 4654,
      "Ġpillows": 4655,
      "Ġbillboard": 4656,
      "Ġuniversity": 4657,
      "Ġther": 4658,
      "Ġthrilled": 4659,
      "Ġsneezed": 4660,
      "Ġpanic": 4661,
      "bey": 4662,
      "Ġtherm": 4663,
      "Ġwarning": 4664,
      "Ġprovide": 4665,
      "Ġdiscuss": 4666,
      "ents": 4667,
      "Ġawe": 4668,
      "Ġrepeat": 4669,
      "Ġvacation": 4670,
      "Ġtwisted": 4671,
      "lv": 4672,
      "Ġtour": 4673,
      "Ġglowed": 4674,
      "ricane": 4675,
      "osed": 4676,
      "Ġworse": 4677,
      "Ġhurricane": 4678,
      "Ġsprinkles": 4679,
      "Ġparts": 4680,
      "Ġshed": 4681,
      "Ġshooting": 4682,
      "Ġsolved": 4683,
      "osity": 4684,
      "Ġweeks": 4685,
      "Ġthermomet": 4686,
      "Ġsty": 4687,
      "Ġsetting": 4688,
      "mmm": 4689,
      "allen": 4690,
      "Ġexamine": 4691,
      "Ġremained": 4692,
      "Ġoranges": 4693,
      "Ġairplane": 4694,
      "Ġranch": 4695,
      "Ġplays": 4696,
      "Ġwherever": 4697,
      "Ġchores": 4698,
      "Ġchallen": 4699,
      "these": 4700,
      "Ġneighborhood": 4701,
      "shing": 4702,
      "Ġfloated": 4703,
      "Ġthermometer": 4704,
      "son": 4705,
      "Ġleak": 4706,
      "thm": 4707,
      "Ġrhythm": 4708,
      "Ġpaints": 4709,
      "Ġfloating": 4710,
      "Ġgrey": 4711,
      "Ġbites": 4712,
      "would": 4713,
      "reat": 4714,
      "Ġcopper": 4715,
      "Ġfixing": 4716,
      "adium": 4717,
      "Ġstadium": 4718,
      "Ġmeasured": 4719,
      "Ġsurrounded": 4720,
      "Ġmemory": 4721,
      "Ġgrinned": 4722,
      "!'": 4723,
      "Ġfasc": 4724,
      "Ġmassage": 4725,
      "Ġconf": 4726,
      "!\",": 4727,
      "rise": 4728,
      "Ġsupposed": 4729,
      "aspoon": 4730,
      "Ġeverybody": 4731,
      "Ġpaused": 4732,
      "Ġbrings": 4733,
      "Ġgifts": 4734,
      "Ġteaspoon": 4735,
      "Ġfut": 4736,
      "Ġfuture": 4737,
      "Ġsigns": 4738,
      "Ġexercise": 4739,
      "Åĵia": 4740,
      "Ġcollection": 4741,
      "Ġmarbles": 4742,
      "Ġgirls": 4743,
      "Ġgust": 4744,
      "Ġstomach": 4745,
      "nie": 4746,
      "sing": 4747,
      "Ġsew": 4748,
      "Ġflood": 4749,
      "Ġtide": 4750,
      "Ġelephants": 4751,
      "Ġactually": 4752,
      "Ġzoe": 4753,
      "icing": 4754,
      "Ġdiscovery": 4755,
      "Ġsunrise": 4756,
      "Ġmailman": 4757,
      "Ġvehicle": 4758,
      "Ġrush": 4759,
      "ari": 4760,
      "Ġbeg": 4761,
      "Ġbes": 4762,
      "Åĵthata": 4763,
      "Ġurge": 4764,
      "Ġmeowed": 4765,
      "Ġchr": 4766,
      "Ġscratch": 4767,
      "Ġbeth": 4768,
      "boo": 4769,
      "Ġstrang": 4770,
      "ishing": 4771,
      "Ġunite": 4772,
      "Ġvelv": 4773,
      "Ġlugg": 4774,
      "Ġdecision": 4775,
      "Ġfascin": 4776,
      "eaked": 4777,
      "Ġchewed": 4778,
      "Ġweapon": 4779,
      "Ġtoe": 4780,
      "Ġtomatoes": 4781,
      "Ġobserve": 4782,
      "Ġcartoons": 4783,
      "Ġluggage": 4784,
      "Ġjan": 4785,
      "Ġvelvet": 4786,
      "Ġscur": 4787,
      "nday": 4788,
      "Ġgrape": 4789,
      "Ġjogging": 4790,
      "Ġzig": 4791,
      "Ġsore": 4792,
      "Ġsunlight": 4793,
      "iers": 4794,
      "Ġpossible": 4795,
      "lest": 4796,
      "Ġcollecting": 4797,
      "Ġfolded": 4798,
      "Ġcurled": 4799,
      "ities": 4800,
      "Ġmister": 4801,
      "Ġmineral": 4802,
      "cles": 4803,
      "Ġcakes": 4804,
      "Ġskipping": 4805,
      "Ġchirped": 4806,
      "Ġmelted": 4807,
      "Ġspill": 4808,
      "Ġsip": 4809,
      "Ġbeat": 4810,
      "Ġsliding": 4811,
      "umble": 4812,
      "Ġitch": 4813,
      "Ġproblems": 4814,
      "Ġsatis": 4815,
      "Ġdifference": 4816,
      "Ġmountains": 4817,
      "Ġtracks": 4818,
      "Ġnavy": 4819,
      "Ġremy": 4820,
      "bers": 4821,
      "Ġmanage": 4822,
      "Ġeag": 4823,
      "Ġoper": 4824,
      "ipment": 4825,
      "Ġgrowl": 4826,
      "Åĵthank": 4827,
      "ero": 4828,
      "Ġlick": 4829,
      "Ġrobb": 4830,
      "Ġequipment": 4831,
      "Ġadmiring": 4832,
      "Ġlaid": 4833,
      "Ġbricks": 4834,
      "Ġbak": 4835,
      "xy": 4836,
      "Ġcontain": 4837,
      "Ġwatered": 4838,
      "Ġkeeper": 4839,
      "Ġpotatoes": 4840,
      "Ġtwigs": 4841,
      "Ġlets": 4842,
      "Ġsoldiers": 4843,
      "Ġmeow": 4844,
      "Ġpatterns": 4845,
      "Ġwhistling": 4846,
      "Ġkindly": 4847,
      "Ġpetted": 4848,
      "Ġseats": 4849,
      "Ġnina": 4850,
      "ipe": 4851,
      "mother": 4852,
      "Ġfet": 4853,
      "Ġspaces": 4854,
      "Ġgain": 4855,
      "Ġpigs": 4856,
      "walk": 4857,
      "Ġprune": 4858,
      "Ġgloves": 4859,
      "Ġreceive": 4860,
      "zag": 4861,
      "Ġoverjoy": 4862,
      "Ġluna": 4863,
      "Ġsqueak": 4864,
      "Ġoverjoyed": 4865,
      "Ġsunday": 4866,
      "Ġslice": 4867,
      "omas": 4868,
      "Ġcontinue": 4869,
      "Ġbeside": 4870,
      "Ġstrangers": 4871,
      "Ġordered": 4872,
      "Ġofficer": 4873,
      "Ġeagle": 4874,
      "oved": 4875,
      "Ġwatches": 4876,
      "Ġgotten": 4877,
      "Ġemer": 4878,
      "Ġglitter": 4879,
      "Ġzipped": 4880,
      "Ġsafari": 4881,
      "Ġspit": 4882,
      "Ġgaz": 4883,
      "Ġlands": 4884,
      "Ġmarching": 4885,
      "Ġnetwork": 4886,
      "Ġearthqu": 4887,
      "Ġprayed": 4888,
      "Ġhist": 4889,
      "Ġbrid": 4890,
      "Ġpeered": 4891,
      "bbled": 4892,
      "Ġeff": 4893,
      "she": 4894,
      "Ġinvitation": 4895,
      "Ġflap": 4896,
      "Ġours": 4897,
      "Ġacorns": 4898,
      "Ġanytime": 4899,
      "Ġwooden": 4900,
      "Ġweight": 4901,
      "Ġhistory": 4902,
      "Ġthomas": 4903,
      "Ġsidewalk": 4904,
      "Ġgroc": 4905,
      "Ġattached": 4906,
      "Ġgrocery": 4907,
      "Ġdrinks": 4908,
      "cious": 4909,
      "Ġwre": 4910,
      "Ġaccidents": 4911,
      "Ġjulie": 4912,
      "Ġjosh": 4913,
      "Ġraised": 4914,
      "Ġdisagreed": 4915,
      "Ġzigzag": 4916,
      "Ġracing": 4917,
      "Ġchlo": 4918,
      "Ġsuzy": 4919,
      "Ġbones": 4920,
      "Ġcompany": 4921,
      "Ġzero": 4922,
      "Ġburning": 4923,
      "Ġonwards": 4924,
      "Ġlen": 4925,
      "Ġpeanuts": 4926,
      "Ġfireworks": 4927,
      "Ġherb": 4928,
      "Åĵwe": 4929,
      "Ġfed": 4930,
      "fy": 4931,
      "will": 4932,
      "\",": 4933,
      "Ġfloppy": 4934,
      "Ġhappiest": 4935,
      "Ġspoons": 4936,
      "Ġcrunchy": 4937,
      "Ġcrashed": 4938,
      "Ġprice": 4939,
      "Ġdinosaurs": 4940,
      "Ġchloe": 4941,
      "Ġbrick": 4942,
      "Ġturning": 4943,
      "seek": 4944,
      "Ġwhistled": 4945,
      "Ġhurried": 4946,
      "Ġvict": 4947,
      "Ġoperation": 4948,
      "Ġrefreshed": 4949,
      "Ġtremb": 4950,
      "Ġaccom": 4951,
      "Ġpies": 4952,
      "really": 4953,
      "Ġclearing": 4954,
      "Ġprepared": 4955,
      "Ġremembers": 4956,
      "Ġbowed": 4957,
      "Ġscratched": 4958,
      "Ġexact": 4959,
      "Ġlips": 4960,
      "aded": 4961,
      "Ġescaped": 4962,
      "Ġbridges": 4963,
      "Ġtalent": 4964,
      "Ġmenu": 4965,
      "Ġbuildings": 4966,
      "Ġplanted": 4967,
      "Ġlip": 4968,
      "Ġbrand": 4969,
      "Ġrevealed": 4970,
      "Ġstitch": 4971,
      "Ġeasier": 4972,
      "Ġcomfy": 4973,
      "Ġworks": 4974,
      "Ġscreams": 4975,
      "Ġprecious": 4976,
      "Ġtip": 4977,
      "Ġali": 4978,
      "Ġhated": 4979,
      "Ġselling": 4980,
      "Ġwarn": 4981,
      "Ġmuddy": 4982,
      "Ġpupp": 4983,
      "Ġrecognized": 4984,
      "Ġaccompl": 4985,
      "Ġcrept": 4986,
      "Ġlandscap": 4987,
      "Ġdrinking": 4988,
      "Ġsettle": 4989,
      "Ġwhatever": 4990,
      "Ġwid": 4991,
      "Ġjamie": 4992,
      "Ġsings": 4993,
      "Ġlect": 4994,
      "xygen": 4995,
      "Ġearthquake": 4996,
      "ases": 4997,
      "Ġmeasuring": 4998,
      "bel": 4999,
      "Ġcuri": 5000,
      "Ġslip": 5001,
      "Ġeffort": 5002,
      "Ġlecture": 5003,
      "Ġperched": 5004,
      "Ġspaceship": 5005,
      "Ġweren": 5006,
      "hest": 5007,
      "Ġcuriosity": 5008,
      "Ġreminder": 5009,
      "Ġwonders": 5010,
      "Ġbeds": 5011,
      "Åĵcan": 5012,
      "Ġshadows": 5013,
      "Ġserved": 5014,
      "Ġappear": 5015,
      "Ġvoices": 5016,
      "Ġpitch": 5017,
      "Ġcuddle": 5018,
      "Ġcircus": 5019,
      "Ġwaits": 5020,
      "Ġpedal": 5021,
      "Ġcutting": 5022,
      "Ġsteel": 5023,
      "Ġcomforted": 5024,
      "Ġagreement": 5025,
      "Ġresponsible": 5026,
      "Ġrained": 5027,
      "Ġobey": 5028,
      "Ġallow": 5029,
      "Ġapologize": 5030,
      "Ġdrag": 5031,
      "ffic": 5032,
      "Ġsoared": 5033,
      "Ġtrapped": 5034,
      "Ġoats": 5035,
      "Ġpets": 5036,
      "Ġsecrets": 5037,
      "Ġshopping": 5038,
      "Ġlandscape": 5039,
      "Ġprinter": 5040,
      "Ġtastes": 5041,
      "Ġoxygen": 5042,
      "Ġtraffic": 5043,
      "Ġsucceeded": 5044,
      "Ġrang": 5045,
      "Ġstripes": 5046,
      "ud": 5047,
      "Ġgrandmother": 5048,
      "Ġdisturbed": 5049,
      "Ġpadd": 5050,
      "Ġwaist": 5051,
      "Ġpearl": 5052,
      "Ġcor": 5053,
      "Ġladyb": 5054,
      "Ġitems": 5055,
      "Ġolives": 5056,
      "Ġswims": 5057,
      "Ġpracticing": 5058,
      "Ġbringing": 5059,
      "Ġwrit": 5060,
      "itten": 5061,
      "Ġvisiting": 5062,
      "Ġanne": 5063,
      "Ġsisters": 5064,
      "Ġexactly": 5065,
      "Ġsimple": 5066,
      "Ġrested": 5067,
      "Ġstealing": 5068,
      "Ġfashion": 5069,
      "Ġactiv": 5070,
      "Ġhanna": 5071,
      "Ġcostumes": 5072,
      "Ġanswers": 5073,
      "Ġstyle": 5074,
      "Ġyoua": 5075,
      "Ġstartled": 5076,
      "izing": 5077,
      "Ġfuzzy": 5078,
      "Ġbene": 5079,
      "Ġbreaking": 5080,
      "Ġsadness": 5081,
      "Ġsoak": 5082,
      "mble": 5083,
      "Ġbrushed": 5084,
      "Ġmouths": 5085,
      "Ġwaffles": 5086,
      "Ġfascinated": 5087,
      "Åĵdon": 5088,
      "Ġencourage": 5089,
      "Ġchef": 5090,
      "Ġoutdo": 5091,
      "Ġunderne": 5092,
      "Ġmonsters": 5093,
      "Ġnails": 5094,
      "Ġunderneath": 5095,
      "icorn": 5096,
      "Ġbeneath": 5097,
      "Ġrele": 5098,
      "agers": 5099,
      "Ġleather": 5100,
      "Ġowned": 5101,
      "Ġcaut": 5102,
      "Ġunicorn": 5103,
      "Ġunderground": 5104,
      "ishes": 5105,
      "Ġblueberry": 5106,
      "Ġbab": 5107,
      "Ġknelt": 5108,
      "Ġpupil": 5109,
      "Ġnutty": 5110,
      "Ġga": 5111,
      "mare": 5112,
      "Ġimage": 5113,
      "Ġclaire": 5114,
      "Ġvillagers": 5115,
      "Ġlemons": 5116,
      "Ġdownstairs": 5117,
      "Ġcatching": 5118,
      "enty": 5119,
      "Ġunlocked": 5120,
      "yum": 5121,
      "terday": 5122,
      "Ġnightmare": 5123,
      "Ġrecognize": 5124,
      "Ġdied": 5125,
      "Ġcreation": 5126,
      "Ġtremble": 5127,
      "Ġwanting": 5128,
      "Ġsix": 5129,
      "Ġeats": 5130,
      "Ġdoctors": 5131,
      "Ġcape": 5132,
      "Ġyesterday": 5133,
      "Ġsoaring": 5134,
      "Ġjogged": 5135,
      "Ġfreeze": 5136,
      "Ġwondering": 5137,
      "spot": 5138,
      "lings": 5139,
      "Ġbouncy": 5140,
      "Ġvictory": 5141,
      "Ġstruggled": 5142,
      "Ġmission": 5143,
      "Ġfamil": 5144,
      "Ġbleeding": 5145,
      "Ġpunished": 5146,
      "Ġadam": 5147,
      "Ġherbs": 5148,
      "Ġbetty": 5149,
      "Ġgained": 5150,
      "Ġstirring": 5151,
      "rs": 5152,
      "Ġwinning": 5153,
      "Ġnicer": 5154,
      "Ġexamined": 5155,
      "Ġarea": 5156,
      "ues": 5157,
      "Ġmachines": 5158,
      "Ġjessie": 5159,
      "Ġguessed": 5160,
      "Ġplanned": 5161,
      "Ġsitu": 5162,
      "Ġintrodu": 5163,
      "Ġsatisfied": 5164,
      "Ġpiles": 5165,
      "Ġargued": 5166,
      "Ġfiremen": 5167,
      "Ġwreck": 5168,
      "Ġtodd": 5169,
      "Ġfetch": 5170,
      "Ġtilly": 5171,
      "Ġchallenge": 5172,
      "Ġripped": 5173,
      "iggy": 5174,
      "ences": 5175,
      "Ġtugged": 5176,
      "Ġstudied": 5177,
      "Ġzooming": 5178,
      "Ġbare": 5179,
      "Ġpeaches": 5180,
      "Ġcarl": 5181,
      "Ġfirefight": 5182,
      "daddy": 5183,
      "Ġbunnies": 5184,
      "Ġwagging": 5185,
      "Ġinstruct": 5186,
      "Ġteasing": 5187,
      "Ġmice": 5188,
      "Ġkeys": 5189,
      "Ġincrease": 5190,
      "looking": 5191,
      "Ġseag": 5192,
      "Ġproperly": 5193,
      "Ġexit": 5194,
      "Ġshivering": 5195,
      "Ġhannah": 5196,
      "Ġgathering": 5197,
      "Ġchirpy": 5198,
      "Ġseagull": 5199,
      "Ġtune": 5200,
      "oops": 5201,
      "Ġsus": 5202,
      "Ġwinner": 5203,
      "Ġoutdoors": 5204,
      "Ġlulu": 5205,
      "Ġspiders": 5206,
      "Åĵhello": 5207,
      "Ġtwirling": 5208,
      "Ġyelling": 5209,
      "Ġpermit": 5210,
      "Ġpeel": 5211,
      "Ġslapped": 5212,
      "Ġmixing": 5213,
      "Ġloaded": 5214,
      "goodbye": 5215,
      "Ġsupplies": 5216,
      "Ġdecorated": 5217,
      "Ġdeser": 5218,
      "Ġtickets": 5219,
      "Ġblink": 5220,
      "Ġdar": 5221,
      "Ġneighbourhood": 5222,
      "Ġlux": 5223,
      "Ġpancakes": 5224,
      "Ġsights": 5225,
      "Ġrides": 5226,
      "just": 5227,
      "ury": 5228,
      "ica": 5229,
      "Ġbegin": 5230,
      "Ġboo": 5231,
      "rol": 5232,
      "Ġburrow": 5233,
      "Ġabby": 5234,
      "Ġsiren": 5235,
      "mama": 5236,
      "Ġsusan": 5237,
      "Ġwest": 5238,
      "rem": 5239,
      "Ġreleased": 5240,
      "Ġweighed": 5241,
      "Ġdraws": 5242,
      "Ġstudying": 5243,
      "Ġsneaked": 5244,
      "Ġti": 5245,
      "Ġmuffins": 5246,
      "Ġprunes": 5247,
      "Ġconfident": 5248,
      ".'": 5249,
      "Ġrealize": 5250,
      "Ġdolly": 5251,
      "Ġinstructions": 5252,
      "Ġgoodnight": 5253,
      "ales": 5254,
      "gers": 5255,
      "Ġbend": 5256,
      "Ġintroduce": 5257,
      "Åĵlook": 5258,
      "Ġladybug": 5259,
      "Ġcompetition": 5260,
      "Ġgrant": 5261,
      "Ġsque": 5262,
      "Ġgiggling": 5263,
      "Ġpinched": 5264,
      "Ġsolut": 5265,
      "Ġbudge": 5266,
      "Ġloving": 5267,
      "Ġcal": 5268,
      "Ġbeha": 5269,
      "Ġrelease": 5270,
      "Ġprinted": 5271,
      "Ġpastel": 5272,
      "Ġinch": 5273,
      "Ġpockets": 5274,
      "Ġbaked": 5275,
      "Ġopin": 5276,
      "Ġstruck": 5277,
      "Ġbunch": 5278,
      "Ġlines": 5279,
      "Ġshoulders": 5280,
      "Ġfrosting": 5281,
      "ops": 5282,
      "Ġstrip": 5283,
      "Ġbroom": 5284,
      "Ġdecides": 5285,
      "Ġtonight": 5286,
      "Ġlou": 5287,
      "Ġstamps": 5288,
      "amb": 5289,
      "Ġemergen": 5290,
      "Ġourselves": 5291,
      "Åĵthis": 5292,
      "Ġcones": 5293,
      "Ġmart": 5294,
      "Ġstair": 5295,
      "anny": 5296,
      "Ġty": 5297,
      "Ġscoop": 5298,
      "jam": 5299,
      "Ġpears": 5300,
      "allow": 5301,
      "Ġchuck": 5302,
      "Ġsides": 5303,
      "uh": 5304,
      "Ġreluct": 5305,
      "oed": 5306,
      "ella": 5307,
      "Ġstrings": 5308,
      "Ġscurried": 5309,
      "âĤ¬âĢĿ": 5310,
      "Ġstretching": 5311,
      "Ġpoking": 5312,
      "Ġmarks": 5313,
      "Ġruler": 5314,
      "Ġeast": 5315,
      "rr": 5316,
      "Ġtwinkle": 5317,
      "Ġkicking": 5318,
      "nesday": 5319,
      "Ġrepeated": 5320,
      "Ġdrift": 5321,
      "bbing": 5322,
      "Ġkeeps": 5323,
      "Ġago": 5324,
      "Ġclaps": 5325,
      "Ġwednesday": 5326,
      "Ġprints": 5327,
      "Ġyouth": 5328,
      "Ġev": 5329,
      "Ġsting": 5330,
      "Ġruin": 5331,
      "Ġcautious": 5332,
      "Ġforgi": 5333,
      "kins": 5334,
      "Ġbrushes": 5335,
      "Ġtouching": 5336,
      "Ġneighbors": 5337,
      "Ġdemanded": 5338,
      "Ġmentioned": 5339,
      "Ġpatience": 5340,
      "Ġdisagree": 5341,
      "Ġprotected": 5342,
      "Ġwrites": 5343,
      "Ġsorting": 5344,
      "Ġsweeties": 5345,
      "gra": 5346,
      "Ġcontrol": 5347,
      "Ġlinda": 5348,
      "Ġguns": 5349,
      "Ġluke": 5350,
      "Ġsant": 5351,
      "Ġribbons": 5352,
      "Ġbuckets": 5353,
      "Ġsanta": 5354,
      "Ġjeff": 5355,
      "Ġreluctantly": 5356,
      "tiest": 5357,
      "Ġtuesday": 5358,
      "exp": 5359,
      "Ġprettiest": 5360,
      "john": 5361,
      "Ġvent": 5362,
      "Ġcamping": 5363,
      "Åĵwhy": 5364,
      "Ġparked": 5365,
      "Ġproject": 5366,
      "Ġsoaked": 5367,
      "Ġchat": 5368,
      "Ġbarely": 5369,
      "Åĵdona": 5370,
      "zie": 5371,
      "Ġhorns": 5372,
      "Ġslim": 5373,
      "icked": 5374,
      "Ġpebbles": 5375,
      "ik": 5376,
      "Ġdiscovering": 5377,
      "riage": 5378,
      "hins": 5379,
      "Ġsilence": 5380,
      "Ġhoppy": 5381,
      "jack": 5382,
      "Ġtwinkling": 5383,
      "Ġdolphins": 5384,
      "Ġmomo": 5385,
      "Ġbabies": 5386,
      "Ġdragons": 5387,
      "Ġresult": 5388,
      "Ġluxury": 5389,
      "Ġexpect": 5390,
      "Ġdent": 5391,
      "Ġsurface": 5392,
      "Ġtexture": 5393,
      "Ġstole": 5394,
      "Ġvowed": 5395,
      "Ġkayla": 5396,
      "Ġhonk": 5397,
      "Ġgazed": 5398,
      "Ġpurred": 5399,
      "Ġmovies": 5400,
      "Ġguys": 5401,
      "Ġbeard": 5402,
      "Ġsteep": 5403,
      "Ġcind": 5404,
      "Ġunexp": 5405,
      "Ġunexpected": 5406,
      "Ġshock": 5407,
      "zen": 5408,
      "Ġpowers": 5409,
      "Ġapplauded": 5410,
      "Ġchewing": 5411,
      "Ġ1": 5412,
      "Ġtickle": 5413,
      "Ġrocking": 5414,
      "Ġboom": 5415,
      "Ġtru": 5416,
      "Ġcontest": 5417,
      "Ġloose": 5418,
      "Ġentire": 5419,
      "somet": 5420,
      "Ġthata": 5421,
      "Ġurged": 5422,
      "Ġacted": 5423,
      "Ġfab": 5424,
      "Ġdragged": 5425,
      "ib": 5426,
      "Ġcatches": 5427,
      "Ġmuscles": 5428,
      "Ġlizzy": 5429,
      "Ġemergency": 5430,
      "Ġstrike": 5431,
      "Ġfabric": 5432,
      "Ġflat": 5433,
      "Ġcompleted": 5434,
      "Ġcurtains": 5435,
      "Ġchips": 5436,
      "mia": 5437,
      "Ġseason": 5438,
      "Ġcurly": 5439,
      "Ġintroduced": 5440,
      "Ġjenna": 5441,
      "Ġdirection": 5442,
      "Ġeight": 5443,
      "Ġbank": 5444,
      "Ġcindy": 5445,
      "Ġfrozen": 5446,
      "Ġimportance": 5447,
      "Ġsnail": 5448,
      "eezing": 5449,
      "Ġsuzie": 5450,
      "owers": 5451,
      "mum": 5452,
      "Ġnick": 5453,
      "Ġhighest": 5454,
      "Ġlibrarian": 5455,
      "ember": 5456,
      "Ġfigured": 5457,
      "Ġrubbing": 5458,
      "Ġshivered": 5459,
      "Ġscreaming": 5460,
      "Ġsolution": 5461,
      "Ġrocked": 5462,
      "Ġpouring": 5463,
      "Ġreplac": 5464,
      "Ġachieve": 5465,
      "Ġbubb": 5466,
      "Ġhi": 5467,
      "Ġstaring": 5468,
      "Ġchases": 5469,
      "Ġhugging": 5470,
      "remember": 5471,
      "Ġroaring": 5472,
      "Ġshelves": 5473,
      "Ġwound": 5474,
      "ern": 5475,
      "Åĵoh": 5476,
      "Ġtheirs": 5477,
      "Ġcrumb": 5478,
      "Ġsled": 5479,
      "sa": 5480,
      "Ġden": 5481,
      "esome": 5482,
      "Ġslimy": 5483,
      "Ġdrives": 5484,
      "Ġsorted": 5485,
      "Ġheel": 5486,
      "Ġlena": 5487,
      "Ġplanets": 5488,
      "Ġcana": 5489,
      "Ġinclude": 5490,
      "Ġpoliceman": 5491,
      "ledge": 5492,
      "Ġmater": 5493,
      "fit": 5494,
      "Ġbalancing": 5495,
      "Ġmick": 5496,
      "Ġexha": 5497,
      "Ġexhaust": 5498,
      "Ġmateri": 5499,
      "Ġsafer": 5500,
      "Ġgreet": 5501,
      "Ġfoods": 5502,
      "Ġsituation": 5503,
      "Ġjac": 5504,
      "Ġknowledge": 5505,
      "Ġawesome": 5506,
      "Ġjun": 5507,
      "Ġusual": 5508,
      "Ġsighs": 5509,
      "mummy": 5510,
      "Ġpassing": 5511,
      "itely": 5512,
      "Ġhomework": 5513,
      "Ġpepp": 5514,
      "Ġflags": 5515,
      "Ġris": 5516,
      "irts": 5517,
      "Ġrainbows": 5518,
      "Ġgro": 5519,
      "Ġjon": 5520,
      "Ġshined": 5521,
      "Ġdared": 5522,
      "Ġray": 5523,
      "Ġwink": 5524,
      "Ġplenty": 5525,
      "Ġpinky": 5526,
      "Ġtowels": 5527,
      "Ġmatched": 5528,
      "Ġlied": 5529,
      "Ġdesp": 5530,
      "ults": 5531,
      "Ġzookeeper": 5532,
      "Ġyum": 5533,
      "though": 5534,
      "vin": 5535,
      "Ġoutfit": 5536,
      "Ġbravery": 5537,
      "Ġreaching": 5538,
      "apping": 5539,
      "Ġtruly": 5540,
      "Ġpretends": 5541,
      "Ġcheering": 5542,
      "Ġradishes": 5543,
      "Ġalthough": 5544,
      "Ġwedding": 5545,
      "Ġsausages": 5546,
      "Ġresting": 5547,
      "Ġgoals": 5548,
      "jamas": 5549,
      "Ġdusty": 5550,
      "Ġcott": 5551,
      "Ġthreat": 5552,
      "aster": 5553,
      "Ġaccomplish": 5554,
      "Ġweb": 5555,
      "Ġpatted": 5556,
      "Ġexhausted": 5557,
      "Ġcaused": 5558,
      "cuse": 5559,
      "excuse": 5560,
      "away": 5561,
      "Ġpaintings": 5562,
      "Ġargu": 5563,
      "Ġpacking": 5564,
      "Ġtara": 5565,
      "Ġmira": 5566,
      "Ġarguing": 5567,
      "Ġblooming": 5568,
      "Ġjacob": 5569,
      "bert": 5570,
      "Ġspraying": 5571,
      "...": 5572,
      "Ġgrowling": 5573,
      "Ġmotion": 5574,
      "Ġwaiter": 5575,
      "Ġsweets": 5576,
      "zzie": 5577,
      "Ġpiggy": 5578,
      "Ġsticking": 5579,
      "Ġstruggle": 5580,
      "iar": 5581,
      "Ġmatching": 5582,
      "da": 5583,
      "Ġworker": 5584,
      "Ġslap": 5585,
      "Ġpout": 5586,
      "Ġmomma": 5587,
      "ason": 5588,
      "Ġgle": 5589,
      "Ġmarkers": 5590,
      "Ġkneeled": 5591,
      "Ġpaddled": 5592,
      "Ġmane": 5593,
      "Ġmarriage": 5594,
      "Ġwritten": 5595,
      "Ġsway": 5596,
      "Ġcubes": 5597,
      "Ġwow": 5598,
      "Ġdeal": 5599,
      "Ġcent": 5600,
      "Ġinviting": 5601,
      "Ġrescued": 5602,
      "Ġlizzie": 5603,
      "inky": 5604,
      "Ġbead": 5605,
      "Ġtraveled": 5606,
      "Ġreveal": 5607,
      "Ġbottles": 5608,
      "ashed": 5609,
      "Ġsinger": 5610,
      "Ġexpected": 5611,
      "oming": 5612,
      "Ġcuts": 5613,
      "Ġprincesses": 5614,
      "Ġjessica": 5615,
      "Ġguest": 5616,
      "Ġcreating": 5617,
      "Ġfir": 5618,
      "Ġflavor": 5619,
      "Ġmaster": 5620,
      "Ġfart": 5621,
      "Ġorganizing": 5622,
      "Ġlearns": 5623,
      "Ġheav": 5624,
      "rees": 5625,
      "Ġdais": 5626,
      "Ġjulia": 5627,
      "Ġtrembling": 5628,
      "Ġregretted": 5629,
      "Ġbloomed": 5630,
      "yeah": 5631,
      "Ġreplaced": 5632,
      "Ġarrive": 5633,
      "Ġpencils": 5634,
      "Ġrecorded": 5635,
      "sometimes": 5636,
      "Ġdespite": 5637,
      "Ġranger": 5638,
      "Ġincluded": 5639,
      "Ġdaisies": 5640,
      "Ġprayer": 5641,
      "Ġobserved": 5642,
      "Ġpipp": 5643,
      "Ġpots": 5644,
      "Ġabb": 5645,
      "Ġfairies": 5646,
      "Ġactivities": 5647,
      "Ġdarkness": 5648,
      "Ġwires": 5649,
      "grand": 5650,
      "Ġtimer": 5651,
      "Ġfirm": 5652,
      "Ġpajamas": 5653,
      "Ġopening": 5654,
      "Ġroads": 5655,
      "Ġseesaw": 5656,
      "ĠĠčĊ": 5657,
      "Ġremoved": 5658,
      "Ġworries": 5659,
      "Ġuses": 5660,
      "Ġventured": 5661,
      "Ġworkers": 5662,
      "Ġrelief": 5663,
      "Ġcountryside": 5664,
      "Ġpeeking": 5665,
      "ho": 5666,
      "Ġstare": 5667,
      "Ġcompletely": 5668,
      "Ġpoems": 5669,
      "Ġchoo": 5670,
      "Ġwasted": 5671,
      "angled": 5672,
      "Ġbelly": 5673,
      "immer": 5674,
      "Ġreply": 5675,
      "Ġstorekeeper": 5676,
      "Ġowners": 5677,
      "Ġflames": 5678,
      "vers": 5679,
      "Ġmiles": 5680,
      "Ġpenguins": 5681,
      "Ġcautiously": 5682,
      "Ġfault": 5683,
      "Ġpolishing": 5684,
      "Ġnan": 5685,
      "Ġleader": 5686,
      "Ġunf": 5687,
      "Ġjohnson": 5688,
      "Ġpartic": 5689,
      "run": 5690,
      "Ġsnakes": 5691,
      "Ġquacked": 5692,
      "Ġstern": 5693,
      "Ġkites": 5694,
      "Ġbecoming": 5695,
      "Ġfolding": 5696,
      "Ġast": 5697,
      "Ġcrabs": 5698,
      "Ġsqueaky": 5699,
      "Ġka": 5700,
      "Ġscales": 5701,
      "Ġwasna": 5702,
      "Ġhelmets": 5703,
      "Ġagrees": 5704,
      "Ġchrist": 5705,
      "Ġfaced": 5706,
      "Ġusually": 5707,
      "Ġgrocer": 5708,
      "Ġlamb": 5709,
      "Ġapplaud": 5710,
      "Ġvanish": 5711,
      "Ġmelting": 5712,
      "Ġsquealed": 5713,
      "Ġhealed": 5714,
      "Ġthro": 5715,
      "Ġscra": 5716,
      "Ġlogs": 5717,
      "Ġgig": 5718,
      "Ġjones": 5719,
      "Ġsnat": 5720,
      "Ġlarry": 5721,
      "Ġconn": 5722,
      "Ġlollipops": 5723,
      "Ġopinion": 5724,
      "Ġtractor": 5725,
      "Ġthroat": 5726,
      "Ġcash": 5727,
      "Ġcrumbs": 5728,
      "Ġripe": 5729,
      "Ġdipped": 5730,
      "Ġcrowd": 5731,
      "Ġmun": 5732,
      "Ġseems": 5733,
      "Ġknights": 5734,
      "Ġstaying": 5735,
      "Ġrisk": 5736,
      "Ġcomm": 5737,
      "Ġteaches": 5738,
      "Ġgroceries": 5739,
      "len": 5740,
      "ivery": 5741,
      "Ġdentist": 5742,
      "Ġvalued": 5743,
      "Ġprovided": 5744,
      "Ġroses": 5745,
      "asm": 5746,
      "Ġpolished": 5747,
      "Ġlap": 5748,
      "Ġunited": 5749,
      "Ġfreed": 5750,
      "Ġinterested": 5751,
      "Ġbumpy": 5752,
      "Ġscru": 5753,
      "Ġbaker": 5754,
      "Ġrings": 5755,
      "Ġnaps": 5756,
      "Ġblows": 5757,
      "Ġrubs": 5758,
      "Ġcracked": 5759,
      "Ġjay": 5760,
      "Ġfaraway": 5761,
      "Ġdesert": 5762,
      "Ġprotecting": 5763,
      "Ġmisses": 5764,
      "Ġrusty": 5765,
      "Ġwinked": 5766,
      "Ġwandering": 5767,
      "Ġtwin": 5768,
      "mas": 5769,
      "Ġmarked": 5770,
      "Ġsophia": 5771,
      "Ġpastries": 5772,
      "Ġyoun": 5773,
      "Ġsigned": 5774,
      "Ġyounger": 5775,
      "Ġbalanced": 5776,
      "Ġcloses": 5777,
      "Ġwrist": 5778,
      "Ġchuckled": 5779,
      "Ġgranny": 5780,
      "Ġsomebody": 5781,
      "Ġmoo": 5782,
      "Ġforehead": 5783,
      "Ġlistens": 5784,
      "Ġsingle": 5785,
      "Ġbeads": 5786,
      "Ġjune": 5787,
      "Ġparticular": 5788,
      "Ġdelivery": 5789,
      "Ġroots": 5790,
      "Ġactions": 5791,
      "Åĵwhata": 5792,
      "Ġcrackers": 5793,
      "vroom": 5794,
      "Ġcopy": 5795,
      "Ġdirections": 5796,
      "Åĵmommy": 5797,
      "Ġtig": 5798,
      "Ġsplashes": 5799,
      "Ġcough": 5800,
      "when": 5801,
      "Ġbess": 5802,
      "rance": 5803,
      "Ġcous": 5804,
      "Ġavo": 5805,
      "Ġitchy": 5806,
      "Ġfilling": 5807,
      "Ġpastels": 5808,
      "bad": 5809,
      "Ġsnuggles": 5810,
      "while": 5811,
      "Ġsnowballs": 5812,
      "Ġrestored": 5813,
      "Ġfluttered": 5814,
      "Ġrolls": 5815,
      "then": 5816,
      "Ġsweat": 5817,
      "Ġgaze": 5818,
      "Ġoh": 5819,
      "Ġstem": 5820,
      "Ġswooped": 5821,
      "Ġtipt": 5822,
      "dies": 5823,
      "Ġsuitcase": 5824,
      "Ġwiggled": 5825,
      "Ġabbie": 5826,
      "Ġsim": 5827,
      "Ġswirl": 5828,
      "Ġchristmas": 5829,
      "Ġaud": 5830,
      "Ġlaura": 5831,
      "Ġslam": 5832,
      "Ġreflect": 5833,
      "Ġphotos": 5834,
      "eed": 5835,
      "tommy": 5836,
      "Ġgigi": 5837,
      "Ġpam": 5838,
      "Ëľ": 5839,
      "âĤ¬Ëľ": 5840,
      "Ġnect": 5841,
      "oline": 5842,
      "Ġnectar": 5843,
      "Ġburst": 5844,
      "Ġcelebration": 5845,
      "Ġpedals": 5846,
      "Ġtrips": 5847,
      "Ġbacked": 5848,
      "Ġneither": 5849,
      "ora": 5850,
      "Ġtallest": 5851,
      "Ġspeaking": 5852,
      "Ġmickey": 5853,
      "Ġawake": 5854,
      "Ġcashier": 5855,
      "Ġfroze": 5856,
      "Ġcause": 5857,
      "Ġsparky": 5858,
      "choo": 5859,
      "Ġremote": 5860,
      "Ġlined": 5861,
      "Ġdarker": 5862,
      "Ġdetermination": 5863,
      "ility": 5864,
      "Ġcomplaining": 5865,
      "iding": 5866,
      "Ġsecure": 5867,
      "Ġacting": 5868,
      "Ġnoon": 5869,
      "ormed": 5870,
      "Ġsneaky": 5871,
      "Ġknees": 5872,
      "Ġmonth": 5873,
      "Ġrecording": 5874,
      "Ġwoof": 5875,
      "Ġvideos": 5876,
      "Ġbars": 5877,
      "Ġrockets": 5878,
      "Ġsilent": 5879,
      "Ġpandy": 5880,
      "Ġhealth": 5881,
      "boat": 5882,
      "Ġinsp": 5883,
      "Ġaccomplishment": 5884,
      "Ġliqu": 5885,
      "Ġpleasure": 5886,
      "Ġliquid": 5887,
      "?\",": 5888,
      "Ġentrance": 5889,
      "Ġglee": 5890,
      "Ġintr": 5891,
      "yond": 5892,
      "Ġbeyond": 5893,
      "Ġwears": 5894,
      "Ġmes": 5895,
      "Ġham": 5896,
      "Ġdelivered": 5897,
      "cha": 5898,
      "Ġcoloured": 5899,
      "fine": 5900,
      "Ġmesmer": 5901,
      "Ġinsects": 5902,
      "Ġopp": 5903,
      "Ġjoking": 5904,
      "Ġemmy": 5905,
      "Ġtricked": 5906,
      "Ġcheeks": 5907,
      "Ġchip": 5908,
      "Ġhoot": 5909,
      "sequ": 5910,
      "Ġbuzzy": 5911,
      "Ġconsequ": 5912,
      "Ġsib": 5913,
      "Ġaff": 5914,
      "Ġlung": 5915,
      "Ġhissed": 5916,
      "Ġstays": 5917,
      "Ġstella": 5918,
      "Ġbowls": 5919,
      "Ġglasses": 5920,
      "Ġindeed": 5921,
      "Ġfarther": 5922,
      "Ġrule": 5923,
      "Ġhearing": 5924,
      "Ġmasks": 5925,
      "Åĵcome": 5926,
      "Ġtricky": 5927,
      "Ġscaring": 5928,
      "Ġsobbed": 5929,
      "Ġtickled": 5930,
      "Ġmikey": 5931,
      "Ġcolored": 5932,
      "Ġrac": 5933,
      "Ġgiraff": 5934,
      "Ġattack": 5935,
      "Ġstolen": 5936,
      "Ġsandcastles": 5937,
      "cky": 5938,
      "Ġsense": 5939,
      "Ġpause": 5940,
      "Ġgiraffes": 5941,
      "Ġmilo": 5942,
      "Ġcovers": 5943,
      "Ġconc": 5944,
      "Ġsmiley": 5945,
      "Ġadding": 5946,
      "pered": 5947,
      "Ġinstrum": 5948,
      "Ġcalmed": 5949,
      "Ġtalented": 5950,
      "Ġhandful": 5951,
      "?'": 5952,
      "arter": 5953,
      "shh": 5954,
      "Ġcandies": 5955,
      "Ġtangled": 5956,
      "Ġsmarter": 5957,
      "Ġscarves": 5958,
      "Ġdam": 5959,
      "Ġbatteries": 5960,
      "hell": 5961,
      "avi": 5962,
      "Ġshirts": 5963,
      "Ġmagnets": 5964,
      "Ġachieved": 5965,
      "Ġchoices": 5966,
      "Ġmaya": 5967,
      "isten": 5968,
      "Ġrobert": 5969,
      "Ġleading": 5970,
      "Ġconsequences": 5971,
      "Ġguy": 5972,
      "Ġyourselves": 5973,
      "Ġbehavi": 5974,
      "Ġbumps": 5975,
      "atch": 5976,
      "Ġbaa": 5977,
      "ossible": 5978,
      "Ġrobbie": 5979,
      "Ġreads": 5980,
      "Ġimpossible": 5981,
      "Ġhesitated": 5982,
      "Ġchris": 5983,
      "Ġdarling": 5984,
      "Ġbadge": 5985,
      "Ġfirefighters": 5986,
      "Ġclowns": 5987,
      "Ġpaddle": 5988,
      "Ġmixture": 5989,
      "Ġexplorers": 5990,
      "Ġtigers": 5991,
      "have": 5992,
      "ddled": 5993,
      "Ġsalty": 5994,
      "Ġtess": 5995,
      "Ġry": 5996,
      "Ġdefe": 5997,
      "Ġkicks": 5998,
      "Ġweeping": 5999,
      "brush": 6000,
      "Ġrobby": 6001,
      "Ġexperi": 6002,
      "Ġrecommended": 6003,
      "ners": 6004,
      "Ġgracefully": 6005,
      "anes": 6006,
      "Ġbakery": 6007,
      "Ġmushrooms": 6008,
      "Ġseashell": 6009,
      "Ġclick": 6010,
      "ept": 6011,
      "Ġseeker": 6012,
      "Ġseven": 6013,
      "Åĵyoua": 6014,
      "Ġimproved": 6015,
      "Ġthorn": 6016,
      "ords": 6017,
      "those": 6018,
      "Ġhu": 6019,
      "Ġswept": 6020,
      "vest": 6021,
      "Ġmartha": 6022,
      "Ġflapping": 6023,
      "atul": 6024,
      "coat": 6025,
      "Ġdeserve": 6026,
      "Ġstroked": 6027,
      "Ġwipes": 6028,
      "Ġbeginning": 6029,
      "Ġintrig": 6030,
      "lling": 6031,
      "Ġcomplained": 6032,
      "Ġhider": 6033,
      "Ġcust": 6034,
      "Åĵdo": 6035,
      "Ġkaren": 6036,
      "child": 6037,
      "Ġthird": 6038,
      "Ġsteer": 6039,
      "Ġknocks": 6040,
      "Ġseconds": 6041,
      "Ġcans": 6042,
      "Ġobjects": 6043,
      "Ġwee": 6044,
      "Ġteased": 6045,
      "Ġparties": 6046,
      "step": 6047,
      "ude": 6048,
      "Ġcupcakes": 6049,
      "Ġtravelled": 6050,
      "Ġheading": 6051,
      "iled": 6052,
      "Ġbasement": 6053,
      "Ġbeam": 6054,
      "anging": 6055,
      "like": 6056,
      "Åĵhi": 6057,
      "next": 6058,
      "Ġhoriz": 6059,
      "Ġcustom": 6060,
      "llen": 6061,
      "Ġfever": 6062,
      "Ġsnuck": 6063,
      "Ġdots": 6064,
      "Ġryan": 6065,
      "Ġsiblings": 6066,
      "Ġraincoat": 6067,
      "Ġartist": 6068,
      "Ġmabel": 6069,
      "Ġhorizon": 6070,
      "Ġperformance": 6071,
      "Ġcelebrating": 6072,
      "Ġpuppies": 6073,
      "sen": 6074,
      "Ġgems": 6075,
      "Ġdrums": 6076,
      "Ġjackets": 6077,
      "Ġhallway": 6078,
      "Ġmarker": 6079,
      "Ġsnatched": 6080,
      "Ġfluttering": 6081,
      "Ġlighter": 6082,
      "Ġbirdy": 6083,
      "Åĵwow": 6084,
      "Ġyells": 6085,
      "indr": 6086,
      "Ġabi": 6087,
      "Ġlett": 6088,
      "Ġamong": 6089,
      "Ġbedtime": 6090,
      "Ġraindr": 6091,
      "Ġpaying": 6092,
      "Ġruining": 6093,
      "Ġwouldna": 6094,
      "Ġmer": 6095,
      "Ġanno": 6096,
      "Ġwrapping": 6097,
      "igning": 6098,
      "Ġjacky": 6099,
      "Ġbuying": 6100,
      "Ġfamilies": 6101,
      "mies": 6102,
      "Ġjojo": 6103,
      "Ġrumble": 6104,
      "tle": 6105,
      "Ġintrigued": 6106,
      "iki": 6107,
      "band": 6108,
      "Ġscrubbed": 6109,
      "Ġdollhouse": 6110,
      "ker": 6111,
      "Ġrivers": 6112,
      "Ġfinn": 6113,
      "Ġlettuce": 6114,
      "Ġcreamy": 6115,
      "Ġjanie": 6116,
      "fire": 6117,
      "Ġneedles": 6118,
      "Ġpeacefully": 6119,
      "meow": 6120,
      "dri": 6121,
      "umbling": 6122,
      "Ġaren": 6123,
      "Ġscratches": 6124,
      "ivity": 6125,
      "rex": 6126,
      "Ġwidened": 6127,
      "Ġdrifted": 6128,
      "Ġtasks": 6129,
      "fall": 6130,
      "Ġwins": 6131,
      "Ġtreehouse": 6132,
      "ades": 6133,
      "Ġpuff": 6134,
      "Ġwona": 6135,
      "Ġhides": 6136,
      "Ġrepa": 6137,
      "Ġbehaved": 6138,
      "Ġplayers": 6139,
      "Ġfid": 6140,
      "Ġarrows": 6141,
      "Ġlosing": 6142,
      "cl": 6143,
      "Ġsale": 6144,
      "ments": 6145,
      "iles": 6146,
      "Ġcuddly": 6147,
      "immering": 6148,
      "Ġgrandparent": 6149,
      "Ġech": 6150,
      "Ġfact": 6151,
      "Ġwilling": 6152,
      "great": 6153,
      "Ġlower": 6154,
      "Ġrewarded": 6155,
      "Ġrover": 6156,
      "Ġcreativity": 6157,
      "Ġshrinking": 6158,
      "hog": 6159,
      "Ġral": 6160,
      "Ġsource": 6161,
      "Ġauntie": 6162,
      "Ġpassen": 6163,
      "Ġtemper": 6164,
      "Ġrepaired": 6165,
      "Ġfears": 6166,
      "Ġminerals": 6167,
      "Ġincluding": 6168,
      "Ġbinky": 6169,
      "Ġralph": 6170,
      "roar": 6171,
      "Ġlimes": 6172,
      "Ġtiptoed": 6173,
      "Ġgina": 6174,
      "itched": 6175,
      "Ġgrassy": 6176,
      "Ġimagining": 6177,
      "Ġcreations": 6178,
      "Ġtapped": 6179,
      "Ġjackie": 6180,
      "Ġonions": 6181,
      "ongr": 6182,
      "Ġchefs": 6183,
      "Ġrising": 6184,
      "Ġkiki": 6185,
      "iece": 6186,
      "Ġdiving": 6187,
      "Ġsprinkled": 6188,
      "Ġseparated": 6189,
      "Ġdecorating": 6190,
      "Ġpeppers": 6191,
      "Ġmaddie": 6192,
      "Ġsadie": 6193,
      "Ġgranted": 6194,
      "beep": 6195,
      "yummy": 6196,
      "Ġchop": 6197,
      "Ġswans": 6198,
      "Ġtempt": 6199,
      "Ġgrabbing": 6200,
      "bun": 6201,
      "Ġsy": 6202,
      "Åĵmy": 6203,
      "Ġcowbo": 6204,
      "Ġhedgehog": 6205,
      "Ġswimsuit": 6206,
      "ertain": 6207,
      "ongratul": 6208,
      "Ġprinting": 6209,
      "Ġpans": 6210,
      "Ġtiss": 6211,
      "ids": 6212,
      "Ġcoup": 6213,
      "Ġscrewdri": 6214,
      "Ġstomped": 6215,
      "Ġmicha": 6216,
      "Ġmichael": 6217,
      "Ġflop": 6218,
      "Ġspong": 6219,
      "Ġjudy": 6220,
      "Ġpouted": 6221,
      "Ġbackwards": 6222,
      "itude": 6223,
      "Ġamel": 6224,
      "Ġsquares": 6225,
      "Ġwobb": 6226,
      "Ġearn": 6227,
      "Ġwindy": 6228,
      "ew": 6229,
      "Ġhesitant": 6230,
      "Ġdamage": 6231,
      "cher": 6232,
      "Ġtramp": 6233,
      "cas": 6234,
      "Ġgross": 6235,
      "Ġplanning": 6236,
      "uing": 6237,
      "Ġstung": 6238,
      "Ġunpacked": 6239,
      "Ġforgiven": 6240,
      "Ġsquish": 6241,
      "Ġslower": 6242,
      "Ġmarie": 6243,
      "Ġraindrops": 6244,
      "Ġrocky": 6245,
      "Ġcenter": 6246,
      "Ġbeloved": 6247,
      "Ġsimon": 6248,
      "aut": 6249,
      "Ġsnowmen": 6250,
      "Ġmaterials": 6251,
      "today": 6252,
      "Ġheavier": 6253,
      "Ġpromises": 6254,
      "Ġpointy": 6255,
      "Ġgrowls": 6256,
      "Ġcuriously": 6257,
      "grandma": 6258,
      "Ġwrink": 6259,
      "Ġbluey": 6260,
      "ky": 6261,
      "Ġwiping": 6262,
      "Ġsurroundings": 6263,
      "Ġavoid": 6264,
      "Ġscrewdriver": 6265,
      "Ġsailboat": 6266,
      "Ġcousin": 6267,
      "Ġrip": 6268,
      "Ġrecipe": 6269,
      "Ġaudience": 6270,
      "bird": 6271,
      "Ġneighbours": 6272,
      "Ġrustling": 6273,
      "Ġrefu": 6274,
      "Ġhus": 6275,
      "Ġblocking": 6276,
      "woof": 6277,
      "Ġmerry": 6278,
      "eds": 6279,
      "kend": 6280,
      "Ġslices": 6281,
      "Ġgobbled": 6282,
      "Ġtemperature": 6283,
      "cus": 6284,
      "Ġweekend": 6285,
      "Ġmeg": 6286,
      "Ġtrampoline": 6287,
      "Ġhelpers": 6288,
      "Ġarr": 6289,
      "Ġlia": 6290,
      "Ġwobbled": 6291,
      "Ġornaments": 6292,
      "Ġcouple": 6293,
      "Ġstool": 6294,
      "Ġdiscussed": 6295,
      "Ġyel": 6296,
      "Ġmarsh": 6297,
      "Ġsparks": 6298,
      "Ġdesigned": 6299,
      "Ġnoses": 6300,
      "Ġdreamt": 6301,
      "itted": 6302,
      "Ġsunflowers": 6303,
      "Ġcorners": 6304,
      "Ġpraying": 6305,
      "Ġracco": 6306,
      "Ġhea": 6307,
      "Ġpecked": 6308,
      "Ġslammed": 6309,
      "lila": 6310,
      "Ġhitting": 6311,
      "Ġafford": 6312,
      "Ġhops": 6313,
      "Ġsports": 6314,
      "Ġfeast": 6315,
      "Ġage": 6316,
      "Ġgrandchild": 6317,
      "Ġforks": 6318,
      "Ġstreets": 6319,
      "ably": 6320,
      "Ġdads": 6321,
      "Ġremembering": 6322,
      "Ġtissue": 6323,
      "ans": 6324,
      "Ġdot": 6325,
      "Ġaside": 6326,
      "Ġzara": 6327,
      "Ġsponge": 6328,
      "Ġtails": 6329,
      "Ġache": 6330,
      "Ġvanilla": 6331,
      "Ġstain": 6332,
      "Ġrequested": 6333,
      "Ġmeals": 6334,
      "tha": 6335,
      "Ġreflection": 6336,
      "Ġbows": 6337,
      "Ġzoey": 6338,
      "Ġwarnings": 6339,
      "Ġdet": 6340,
      "Ġprett": 6341,
      "Ġdances": 6342,
      "Ġwea": 6343,
      "Ġplans": 6344,
      "Ġleaning": 6345,
      "Ġduckling": 6346,
      "Ġshaped": 6347,
      "Ġfamiliar": 6348,
      "Ġscrews": 6349,
      "Ġdollars": 6350,
      "rect": 6351,
      "Ġmagician": 6352,
      "Ġcoloring": 6353,
      "Ġspreading": 6354,
      "Ġadult": 6355,
      "Ġbreathed": 6356,
      "Ġmuscle": 6357,
      "Ġgreeted": 6358,
      "Ġwhoever": 6359,
      "Ġskunk": 6360,
      "Ġastron": 6361,
      "Ġscam": 6362,
      "Ġforgets": 6363,
      "Ġpeep": 6364,
      "Ġchosen": 6365,
      "Ġtunnels": 6366,
      "Ġthrown": 6367,
      "Ġshops": 6368,
      "Ġtwice": 6369,
      "Ġgardener": 6370,
      "Ġsailors": 6371,
      "Ġamelia": 6372,
      "Ġprettier": 6373,
      "Ġhour": 6374,
      "Ġsnuggle": 6375,
      "Ġswords": 6376,
      "Ġastronaut": 6377,
      "Ġpotion": 6378,
      "whee": 6379,
      "ibble": 6380,
      "Ġzipping": 6381,
      "Ġtouches": 6382,
      "--": 6383,
      "Ġhusband": 6384,
      "ition": 6385,
      "Ġspikes": 6386,
      "Ġenthusiasm": 6387,
      "Ġrott": 6388,
      "Ġsuperheroes": 6389,
      "Ġdaring": 6390,
      "Ġdod": 6391,
      "Ġflight": 6392,
      "wk": 6393,
      "fly": 6394,
      "Ġchanging": 6395,
      "Åĵbut": 6396,
      "Ġreason": 6397,
      "Ġwishing": 6398,
      "Ġcorrect": 6399,
      "some": 6400,
      "Ġleap": 6401,
      "Ġspoonful": 6402,
      "Ġpens": 6403,
      "shions": 6404,
      "mallow": 6405,
      "Ġreass": 6406,
      "Ġleast": 6407,
      "Ġrotten": 6408,
      "Ġfido": 6409,
      "Ġmarshmallow": 6410,
      "stick": 6411,
      "Ġforgetting": 6412,
      "Ġborrowed": 6413,
      "Ġcuddles": 6414,
      "Ġgrandparents": 6415,
      "Ġcounts": 6416,
      "ca": 6417,
      "Ġheroes": 6418,
      "Ġsending": 6419,
      "Ġhopeful": 6420,
      "Ġbodies": 6421,
      "Ġguests": 6422,
      "Ġdavey": 6423,
      "Ġzebras": 6424,
      "Ġflavors": 6425,
      "Ġ10": 6426,
      "Ġmesmerized": 6427,
      "Ġneare": 6428,
      "Ġfeeding": 6429,
      "Ġraccoon": 6430,
      "ounced": 6431,
      "acter": 6432,
      "Ġnine": 6433,
      "Ġcharacter": 6434,
      "Ġwobble": 6435,
      "Ġmints": 6436,
      "Ġposs": 6437,
      "Ġbuzzed": 6438,
      "Ġneatly": 6439,
      "Ġwil": 6440,
      "Ġgrows": 6441,
      "Ġwendy": 6442,
      "Ġwraps": 6443,
      "ix": 6444,
      "Ġsteady": 6445,
      "Ġnibb": 6446,
      "Ġhandsome": 6447,
      "Ġnapkins": 6448,
      "Ġbaths": 6449,
      "itches": 6450,
      "Ġcond": 6451,
      "using": 6452,
      "Ġdelivering": 6453,
      "Ġmonths": 6454,
      "Ġfrosty": 6455,
      "Ġnibble": 6456,
      "antha": 6457,
      "Ġdived": 6458,
      "Ġrick": 6459,
      "Ġpolitely": 6460,
      "Ġonward": 6461,
      "found": 6462,
      "Ġsuffering": 6463,
      "Ġalien": 6464,
      "years": 6465,
      "mine": 6466,
      "Ġwarmer": 6467,
      "Ġsneezing": 6468,
      "weed": 6469,
      "Ġthroughout": 6470,
      "Ġunsure": 6471,
      "Ġhonked": 6472,
      "Ġholly": 6473,
      "Ġplain": 6474,
      "Ġwiggle": 6475,
      "Ġgri": 6476,
      "Ġdie": 6477,
      "Ġsamantha": 6478,
      "Ġbully": 6479,
      "Ġplucked": 6480,
      "Ġcrashing": 6481,
      "Ġtoddler": 6482,
      "Ġmaddy": 6483,
      "iley": 6484,
      "Ġgeese": 6485,
      "Ġposter": 6486,
      "meal": 6487,
      "Ġembarrass": 6488,
      "Ġexpress": 6489,
      "Ġlungs": 6490,
      "Ġmatters": 6491,
      "Ġjoining": 6492,
      "Ġlifts": 6493,
      "Ġseaweed": 6494,
      "Åĵmom": 6495,
      "Ġbiting": 6496,
      "Ġrefreshing": 6497,
      "Ġruth": 6498,
      "Ġthud": 6499,
      "Ġoatmeal": 6500,
      "Ġpreparing": 6501,
      "Ġdip": 6502,
      "Ġstudents": 6503,
      "Ġcrew": 6504,
      "Ġincreased": 6505,
      "cake": 6506,
      "Ġstands": 6507,
      "cers": 6508,
      "Ġpops": 6509,
      "Ġscen": 6510,
      "uzz": 6511,
      "abra": 6512,
      "allowed": 6513,
      "Ġswallowed": 6514,
      "Ġhawk": 6515,
      "Ġglued": 6516,
      "fo": 6517,
      "Ġcongratul": 6518,
      "Ġfocu": 6519,
      "fr": 6520,
      "Ġwatering": 6521,
      "Ġwhispers": 6522,
      "Ġbessie": 6523,
      "Ġrespond": 6524,
      "Ġropes": 6525,
      "aa": 6526,
      "Ġamount": 6527,
      "Ġtriangles": 6528,
      "Ġwobbly": 6529,
      "Ġtoaster": 6530,
      "Ġpostman": 6531,
      "Ġlessons": 6532,
      "Ġperformed": 6533,
      "fin": 6534,
      "Ġstarfish": 6535,
      "Ġfreedom": 6536,
      "Åĵwell": 6537,
      "gg": 6538,
      "Ġpuppet": 6539,
      "Ġleads": 6540,
      "Ġtrembled": 6541,
      "Ġpresses": 6542,
      "Ġrushing": 6543,
      "iel": 6544,
      "Ġcushions": 6545,
      "Ġadults": 6546,
      "Ġwrigg": 6547,
      "Ġdancers": 6548,
      "bbie": 6549,
      "Ġconfl": 6550,
      "Ġtalks": 6551,
      "Ġpanicked": 6552,
      "Ġsniffs": 6553,
      "Ġresisted": 6554,
      "Ġscraped": 6555,
      "Ġfocused": 6556,
      "Ġbubba": 6557,
      "bro": 6558,
      "Åĵwhere": 6559,
      "Ġjoyful": 6560,
      "Ġnecklaces": 6561,
      "bit": 6562,
      "vant": 6563,
      "Ġslips": 6564,
      "Ġsofter": 6565,
      "Ġfirmly": 6566,
      "Ġwaddled": 6567,
      "Ġhumans": 6568,
      "Ġfirefly": 6569,
      "Ġtrot": 6570,
      "Ġnervously": 6571,
      "Ġencouraging": 6572,
      "Ġinstantly": 6573,
      "ados": 6574,
      "Ġmegan": 6575,
      "Ġquarreling": 6576,
      "Ġdropping": 6577,
      "Ġfrowning": 6578,
      "Ġtested": 6579,
      "listen": 6580,
      "Ġdrawers": 6581,
      "Ġtables": 6582,
      "attered": 6583,
      "Ġpigeons": 6584,
      "Ġblast": 6585,
      "iona": 6586,
      "Ġlifting": 6587,
      "Ġwaterfall": 6588,
      "Ġnapping": 6589,
      "Ġtuck": 6590,
      "Ġworn": 6591,
      "onna": 6592,
      "Ġnood": 6593,
      "lucy": 6594,
      "Ġoc": 6595,
      "Ġfaded": 6596,
      "Ġscampered": 6597,
      "Ġdrivers": 6598,
      "Ġrout": 6599,
      "Ġfirefighter": 6600,
      "Ġpolar": 6601,
      "Ġpennies": 6602,
      "Ġspat": 6603,
      "Ġexplo": 6604,
      "Ġwithin": 6605,
      "Ġflas": 6606,
      "Ġscient": 6607,
      "Ġappreciation": 6608,
      "Ġsan": 6609,
      "Ġwhata": 6610,
      "Ġmina": 6611,
      "Ġpours": 6612,
      "Ġrobber": 6613,
      "Ġdrawn": 6614,
      "Ġfreddie": 6615,
      "Ġmate": 6616,
      "Ġthoughts": 6617,
      "Ġscientist": 6618,
      "Ġrespected": 6619,
      "Ġsofia": 6620,
      "Ġflopsy": 6621,
      "Ġelf": 6622,
      "Ġtwinkled": 6623,
      "Ġsurprising": 6624,
      "Ġmeanwhile": 6625,
      "Ġleapt": 6626,
      "Ġstacked": 6627,
      "Ġavocados": 6628,
      "Ġkaty": 6629,
      "Ġdresser": 6630,
      "Ġfiona": 6631,
      "Ġfits": 6632,
      "Ġovercome": 6633,
      "Ġplaytime": 6634,
      "Ġnotes": 6635,
      "Åĵok": 6636,
      "Ġbravest": 6637,
      "Ġstrongest": 6638,
      "sue": 6639,
      "Ġcraft": 6640,
      "Ġeva": 6641,
      "Ġwiggly": 6642,
      "Ġforgiving": 6643,
      "Ġnur": 6644,
      "Ġken": 6645,
      "Ġgonna": 6646,
      "Ġpeck": 6647,
      "Åĵif": 6648,
      "ushed": 6649,
      "Ġtam": 6650,
      "Ġcertain": 6651,
      "Ġspeedy": 6652,
      "Åĵokay": 6653,
      "Ġwept": 6654,
      "fus": 6655,
      "Ġcosy": 6656,
      "Ġpumpkins": 6657,
      "Ġspins": 6658,
      "Ġcobwebs": 6659,
      "Ġscored": 6660,
      "Ġcolder": 6661,
      "Ġechoed": 6662,
      "bage": 6663,
      "Ġconvers": 6664,
      "ggy": 6665,
      "Ġwakes": 6666,
      "Ġsqueezing": 6667,
      "Ġgarbage": 6668,
      "Ġperforming": 6669,
      "Ġfroggy": 6670,
      "Ġplayroom": 6671,
      "Ġsquishy": 6672,
      "Ġdesigns": 6673,
      "Ġsank": 6674,
      "Ġbehaving": 6675,
      "Ġprove": 6676,
      "eezes": 6677,
      "bably": 6678,
      "Ġthump": 6679,
      "Ġbru": 6680,
      "Ġangels": 6681,
      "Ġflown": 6682,
      "Ġgiggles": 6683,
      "Ġtricycle": 6684,
      "Ġprobably": 6685,
      "Ġrobots": 6686,
      "Ġbells": 6687,
      "Ġblinking": 6688,
      "Ġsweetest": 6689,
      "broken": 6690,
      "Ġmarshmallows": 6691,
      "Ġguide": 6692,
      "Ġgest": 6693,
      "Ġjonny": 6694,
      "iment": 6695,
      "Ġsharks": 6696,
      "Ġexplorer": 6697,
      "Ġhealing": 6698,
      "Ġtossed": 6699,
      "Ġcausing": 6700,
      "follow": 6701,
      "Ġties": 6702,
      "Ġtar": 6703,
      "ndred": 6704,
      "...\"": 6705,
      "int": 6706,
      "Ġshoo": 6707,
      "Ġapr": 6708,
      "ently": 6709,
      "Ġshown": 6710,
      "Ġcotton": 6711,
      "Ġtwisty": 6712,
      "Ġhundred": 6713,
      "pr": 6714,
      "Ġspices": 6715,
      "Ġpuzzled": 6716,
      "Ġmae": 6717,
      "Ġpassengers": 6718,
      "Ġtighter": 6719,
      "Ġpins": 6720,
      "Ġhaird": 6721,
      "Ġund": 6722,
      "Ġyielded": 6723,
      "?!\"": 6724,
      "Ġsadd": 6725,
      "watch": 6726,
      "Ġpassports": 6727,
      "Ġpound": 6728,
      "Ġfleas": 6729,
      "Ġlouise": 6730,
      "Ġoysters": 6731,
      "Ġreversed": 6732,
      "Ġshall": 6733,
      "Ġkittens": 6734,
      "bl": 6735,
      "Ġmelo": 6736,
      "Ġtil": 6737,
      "Ġsewing": 6738,
      "Ġaimed": 6739,
      "ading": 6740,
      "Ġfaith": 6741,
      "Ġoffic": 6742,
      "Ġnearly": 6743,
      "Ġally": 6744,
      "Ġwoo": 6745,
      "Ġpatches": 6746,
      "Ġpays": 6747,
      "upt": 6748,
      "Ġ2": 6749,
      "Ġmac": 6750,
      "Ġdistract": 6751,
      "Ġbrushing": 6752,
      "ilda": 6753,
      "Ġinstruments": 6754,
      "Ġwider": 6755,
      "Ġbits": 6756,
      "Ġconflict": 6757,
      "Ġreun": 6758,
      "mates": 6759,
      "ita": 6760,
      "take": 6761,
      "Ġnuzz": 6762,
      "Ġclues": 6763,
      "Ġdoorway": 6764,
      "surpr": 6765,
      "Ġpaintbrush": 6766,
      "Ġappreciated": 6767,
      "Ġmaisy": 6768,
      "piece": 6769,
      "Ġsurfing": 6770,
      "Ġscurry": 6771,
      "Ġinj": 6772,
      "Ġcoug": 6773,
      "Ġevil": 6774,
      "Ġlaying": 6775,
      "Ġpurr": 6776,
      "Ġmerma": 6777,
      "Ġaction": 6778,
      "Ġloading": 6779,
      "Ġcottage": 6780,
      "Åĵplease": 6781,
      "daughter": 6782,
      "po": 6783,
      "Ġease": 6784,
      "alright": 6785,
      "Ġsever": 6786,
      "Ġheartbroken": 6787,
      "Ġhallow": 6788,
      "Ġseveral": 6789,
      "onies": 6790,
      "Ġslither": 6791,
      "Ġsoaking": 6792,
      "Ġpaths": 6793,
      "Ġignoring": 6794,
      "Ġhalloween": 6795,
      "Ġslipping": 6796,
      "Ġanger": 6797,
      "Ġrobin": 6798,
      "Ġais": 6799,
      "Ġjoh": 6800,
      "Ġblocked": 6801,
      "Ġsweep": 6802,
      "Ġrepeating": 6803,
      "Ġrainy": 6804,
      "Ġbelts": 6805,
      "Ġtwisting": 6806,
      "lves": 6807,
      "Ġfant": 6808,
      "Ġfigures": 6809,
      "Ġresults": 6810,
      "Ġbon": 6811,
      "yed": 6812,
      "surprise": 6813,
      "Ġwhose": 6814,
      "Ġcloudy": 6815,
      "Ġtying": 6816,
      "Ġmailed": 6817,
      "Ġnoodles": 6818,
      "Ġcrossing": 6819,
      "Ġpippa": 6820,
      "Ġgrandson": 6821,
      "idey": 6822,
      "Ġsuffered": 6823,
      "Ġstroll": 6824,
      "Ġpippin": 6825,
      "amaged": 6826,
      "Ġlending": 6827,
      "fla": 6828,
      "Ġconnected": 6829,
      "Ġouch": 6830,
      "Ġbecky": 6831,
      "Ġfinishing": 6832,
      "Ġbuses": 6833,
      "âĤ¬,": 6834,
      "Ġshovels": 6835,
      "Ġdamaged": 6836,
      "Åĵof": 6837,
      "Ġshrug": 6838,
      "Ġbreathing": 6839,
      "Ġaccomplished": 6840,
      "Ġrin": 6841,
      "Ġroars": 6842,
      "Ġlicking": 6843,
      "Ġrather": 6844,
      "Ġbehavior": 6845,
      "isc": 6846,
      "Ġdaniel": 6847,
      "Ġhumming": 6848,
      "Ġbracelets": 6849,
      "Ġresponsib": 6850,
      "Ġponies": 6851,
      "Ġstreamers": 6852,
      "Ġsurrendered": 6853,
      "Ġtoward": 6854,
      "Ġrisks": 6855,
      "Ġshady": 6856,
      "Ġencount": 6857,
      "Ġspidey": 6858,
      "Ġexcept": 6859,
      "Ġhairdress": 6860,
      "flakes": 6861,
      "Ġdefin": 6862,
      "Ġpopp": 6863,
      "Ġcleaner": 6864,
      "byes": 6865,
      "Ġsupported": 6866,
      "Ġquieter": 6867,
      "Ġawoke": 6868,
      "Ġfantastic": 6869,
      "Ġgoodbyes": 6870,
      "Ġsnowflakes": 6871,
      "oni": 6872,
      "Ġstitches": 6873,
      "Ġeliz": 6874,
      "asty": 6875,
      "Ġkelly": 6876,
      "Ġcoral": 6877,
      "Ġtablet": 6878,
      "Åĵnow": 6879,
      "Ġthorns": 6880,
      "Ġgenie": 6881,
      "isions": 6882,
      "Ġedges": 6883,
      "Ġfrankie": 6884,
      "unity": 6885,
      "Ġgranddaughter": 6886,
      "Ġkings": 6887,
      "Ġprick": 6888,
      "Ġfrowns": 6889,
      "erk": 6890,
      "Ġwally": 6891,
      "Ġhanding": 6892,
      "ms": 6893,
      "Ġfocus": 6894,
      "Ġfinal": 6895,
      "Ġjaney": 6896,
      "worm": 6897,
      "Ġsmal": 6898,
      "Ġsped": 6899,
      "Ġdrown": 6900,
      "Ġelbow": 6901,
      "Ġwisely": 6902,
      "Ġreminding": 6903,
      "Ġterrified": 6904,
      "Ġdefinitely": 6905,
      "crow": 6906,
      "Ġrains": 6907,
      "Ġkevin": 6908,
      "Ġgesture": 6909,
      "Ġhairdresser": 6910,
      "Ġsmallest": 6911,
      "Ġsurv": 6912,
      "Ġsymbols": 6913,
      "Ġbattle": 6914,
      "dding": 6915,
      "Ġvines": 6916,
      "Ġcorrectly": 6917,
      "Ġsou": 6918,
      "father": 6919,
      "Ġdecisions": 6920,
      "Ġsnort": 6921,
      "Ġdriveway": 6922,
      "Ġwarri": 6923,
      "Ġpeeled": 6924,
      "Ġnewfound": 6925,
      "Ġsqueaked": 6926,
      "Ġoccas": 6927,
      "Ġchopped": 6928,
      "Ġweeds": 6929,
      "Ġscarecrow": 6930,
      "Ġstudent": 6931,
      "bob": 6932,
      "Ġnasty": 6933,
      "Ġgus": 6934,
      "ening": 6935,
      "Ġsimply": 6936,
      "Ġinspired": 6937,
      "Ġfishes": 6938,
      "Ġbandages": 6939,
      "Ġsav": 6940,
      "cie": 6941,
      "Ġstopping": 6942,
      "onse": 6943,
      "Ġresponse": 6944,
      "Ġexercises": 6945,
      "kids": 6946,
      "Ġexperien": 6947,
      "steps": 6948,
      "sol": 6949,
      "Ġbanged": 6950,
      "line": 6951,
      "Ġafar": 6952,
      "Ġdarlings": 6953,
      "Åĵhey": 6954,
      "Ġtravels": 6955,
      "Ġdisturbing": 6956,
      "Ġtipped": 6957,
      "Ġfills": 6958,
      "Ġfootsteps": 6959,
      "Ġlent": 6960,
      "Ġflipped": 6961,
      "Ġtravelling": 6962,
      "Ġjax": 6963,
      "Ġbelieving": 6964,
      "Ġpedaled": 6965,
      "Ġbirdhouse": 6966,
      "Ġcheers": 6967,
      "Ġships": 6968,
      "Ġpunishment": 6969,
      "Ġconvin": 6970,
      "Ġwindowsill": 6971,
      "Ġspits": 6972,
      "Ġlies": 6973,
      "Ġpresented": 6974,
      "Ġpoppies": 6975,
      "Ġstan": 6976,
      "sm": 6977,
      "Ġdesper": 6978,
      "Ġjoan": 6979,
      "Ġaddress": 6980,
      "Ġplanting": 6981,
      "Ġsquaw": 6982,
      "Ġchocolates": 6983,
      "Ġapologised": 6984,
      "Ġforests": 6985,
      "Ġantic": 6986,
      "Ġdory": 6987,
      "Ġnodding": 6988,
      "Ġencouragement": 6989,
      "Ġsurfboard": 6990,
      "bu": 6991,
      "Ġcongratulated": 6992,
      "Ġelle": 6993,
      "Ġsails": 6994,
      "Ġreassured": 6995,
      "Ġnat": 6996,
      "Ġarranged": 6997,
      "Ġtrotted": 6998,
      "Ġreunited": 6999,
      "Ġroger": 7000,
      "Ġphil": 7001,
      "Ġimages": 7002,
      "Ġcovering": 7003,
      "Ġhoo": 7004,
      "Ġtarget": 7005,
      "Ġclerk": 7006,
      "Ġpatty": 7007,
      "Ġsuits": 7008,
      "Ġreapp": 7009,
      "Ġpand": 7010,
      "Ġmagnif": 7011,
      "little": 7012,
      "Ġbusiness": 7013,
      "Ġcampfire": 7014,
      "Ġofficers": 7015,
      "Ġmarve": 7016,
      "Ġmirac": 7017,
      "Ġmood": 7018,
      "order": 7019,
      "issa": 7020,
      "Ġtesting": 7021,
      "bang": 7022,
      "Ġspeeding": 7023,
      "Ġbackpacks": 7024,
      "Ġdep": 7025,
      "Ġknots": 7026,
      "quick": 7027,
      "Ġchilly": 7028,
      "wise": 7029,
      "Ġactivity": 7030,
      "weet": 7031,
      "Ġsmelling": 7032,
      "Ġmasterpiece": 7033,
      "Ġpandas": 7034,
      "Ġexpert": 7035,
      "action": 7036,
      "Ġnancy": 7037,
      "Ġyelped": 7038,
      "rest": 7039,
      "Åĵthe": 7040,
      "Ġtasting": 7041,
      "Ġwrinkled": 7042,
      "Ġger": 7043,
      "ooky": 7044,
      "Ġgrip": 7045,
      "Ġcomforting": 7046,
      "Ġconcert": 7047,
      "Ġchanges": 7048,
      "Ġamanda": 7049,
      "Ġgears": 7050,
      "Ġlabels": 7051,
      "Ġmermaid": 7052,
      "Ġsniffing": 7053,
      "Ġspills": 7054,
      "Ġcalmly": 7055,
      "Ġdelayed": 7056,
      "Ġfoxes": 7057,
      "Ġbraver": 7058,
      "Ġpleaded": 7059,
      "Ġelly": 7060,
      "Ġworrying": 7061,
      "Ġstumble": 7062,
      "otte": 7063,
      "Ġburying": 7064,
      "Ġaim": 7065,
      "Ġspies": 7066,
      "Ġquackers": 7067,
      "Ġdiscussing": 7068,
      "Ġsuggestion": 7069,
      "Ġmagazines": 7070,
      "Ġjars": 7071,
      "Ġcrowns": 7072,
      "Ġartwork": 7073,
      "Ġpuck": 7074,
      "Ġgrandfather": 7075,
      "Ġjean": 7076,
      "Ġmischie": 7077,
      "Ġbelongings": 7078,
      "Ġbothering": 7079,
      "bell": 7080,
      "Ġbless": 7081,
      "Ġdisplayed": 7082,
      "Ġmischievous": 7083,
      "Ġunderstands": 7084,
      "Ġrefuse": 7085,
      "screen": 7086,
      "Ġcharlotte": 7087,
      "Ġadmiration": 7088,
      "Ġheight": 7089,
      "sha": 7090,
      "Ġefforts": 7091,
      "Ġseller": 7092,
      "Ġque": 7093,
      "ya": 7094,
      "arrow": 7095,
      "Ġbaskets": 7096,
      "Ġdisc": 7097,
      "Ġtoolbox": 7098,
      "Ġaware": 7099,
      "ighing": 7100,
      "Ġhelen": 7101,
      "Ġbitten": 7102,
      "Ġdragonfly": 7103,
      "rier": 7104,
      "Ġdecl": 7105,
      "Ġfires": 7106,
      "Ġsolving": 7107,
      "Ġexperienced": 7108,
      "Ġannoyed": 7109,
      "inted": 7110,
      "Ġdump": 7111,
      "Ġvehicles": 7112,
      "Ġpackages": 7113,
      "Ġcoach": 7114,
      "Ġana": 7115,
      "Ġcowboy": 7116,
      "iam": 7117,
      "Ġsunscreen": 7118,
      "Ġwealth": 7119,
      "Ġfortunately": 7120,
      "urday": 7121,
      "Ġmemb": 7122,
      "Ġmembers": 7123,
      "Ġtumbled": 7124,
      "Ġposit": 7125,
      "Ġeddie": 7126,
      "Ġseashells": 7127,
      "Ġpeas": 7128,
      "Ġwarmly": 7129,
      "Ġsaturday": 7130,
      "Ġnibbled": 7131,
      "Ġrotting": 7132,
      "Ġlina": 7133,
      "Åĵsure": 7134,
      "Ġmelody": 7135,
      "Ġmam": 7136,
      "Ġloops": 7137,
      "Ġtreated": 7138,
      "Ġspooky": 7139,
      "Ġelsa": 7140,
      "Ġscent": 7141,
      "Ġgazing": 7142,
      "Ġmaker": 7143,
      "Ġmaterial": 7144,
      "water": 7145,
      "Ġprayers": 7146,
      "Ġly": 7147,
      "Ġannabel": 7148,
      "Ġsill": 7149,
      "goodnight": 7150,
      "Ġinsisting": 7151,
      "Ġconqu": 7152,
      "Ġdiso": 7153,
      "Ġuntied": 7154,
      "Ġcurl": 7155,
      "bra": 7156,
      "Ġunw": 7157,
      "Ġraces": 7158,
      "Ġparted": 7159,
      "Ġenviron": 7160,
      "Ġdiamonds": 7161,
      "Ġconversation": 7162,
      "Ġtammy": 7163,
      "Ġcollap": 7164,
      "Ġsasha": 7165,
      "Ġrudy": 7166,
      "Ġteachers": 7167,
      "Ġencountered": 7168,
      "Ġjoins": 7169,
      "Ġhoops": 7170,
      "Ġava": 7171,
      "Ġsewed": 7172,
      "Ġenvironment": 7173,
      "Ġwhispering": 7174,
      "ugging": 7175,
      "Ġscurrying": 7176,
      "Ġturtles": 7177,
      "Ġjoked": 7178,
      "Ġargum": 7179,
      "every": 7180,
      "Ġpurpose": 7181,
      "Ġorders": 7182,
      "Ġtilted": 7183,
      "dear": 7184,
      "Ġstored": 7185,
      "Ġtroubles": 7186,
      "Ġloses": 7187,
      "Ġexch": 7188,
      "Ġpermitted": 7189,
      "Ġsheets": 7190,
      "bee": 7191,
      "Ġquarre": 7192,
      "Åĵsee": 7193,
      "Ġscram": 7194,
      "Ġfins": 7195,
      "Ġgap": 7196,
      "Ġglittering": 7197,
      "Ġqueens": 7198,
      "Ġdetail": 7199,
      "acles": 7200,
      "Ġterry": 7201,
      "Ġgoats": 7202,
      "Ġtubes": 7203,
      "five": 7204,
      "Ġbathing": 7205,
      "Ġspells": 7206,
      "Ġpupils": 7207,
      "Ġtype": 7208,
      "Ġbeaming": 7209,
      "iscuit": 7210,
      "Ġanticip": 7211,
      "Ġforgiveness": 7212,
      "Ġbiscuit": 7213,
      "Ġtrans": 7214,
      "stay": 7215,
      "free": 7216,
      "Ġnana": 7217,
      "Ġnearest": 7218,
      "Ġends": 7219,
      "Ġservant": 7220,
      "ongo": 7221,
      "Ġfilms": 7222,
      "Ġvisitors": 7223,
      "Ġcustomers": 7224,
      "urry": 7225,
      "Ġotherwise": 7226,
      "Ġpriz": 7227,
      "Ġjason": 7228,
      "Ġopport": 7229,
      "Ġdonkey": 7230,
      "Ġuntie": 7231,
      "Ġstroke": 7232,
      "Ġwasting": 7233,
      "Ġcleared": 7234,
      "Ġdressing": 7235,
      "Ġtapping": 7236,
      "Ġhonesty": 7237,
      "Ġhunters": 7238,
      "Ġoppos": 7239,
      "Ġnurses": 7240,
      "Ġsoot": 7241,
      "Ġexamining": 7242,
      "Ġswo": 7243,
      "Ġfishy": 7244,
      "Ġconvinced": 7245,
      "Ġconnect": 7246,
      "Ġsweaty": 7247,
      "Ġwounds": 7248,
      "Ġswollen": 7249,
      "Ġcooper": 7250,
      "gic": 7251,
      "Ġizzy": 7252,
      "Ġslowed": 7253,
      "always": 7254,
      "Ġbobbie": 7255,
      "Ġdeclared": 7256,
      "Ġoink": 7257,
      "Ġwilliam": 7258,
      "Ġopposite": 7259,
      "leave": 7260,
      "elope": 7261,
      "Ġspy": 7262,
      "jim": 7263,
      "inger": 7264,
      "Ġshrunk": 7265,
      "Ġcharacters": 7266,
      "Ġricky": 7267,
      "Ġtin": 7268,
      "ilities": 7269,
      "Ġfailed": 7270,
      "Ġeric": 7271,
      "Ġjud": 7272,
      "Ġtransf": 7273,
      "Ġelsie": 7274,
      "Ġting": 7275,
      "Ġbeaver": 7276,
      "Ġtidied": 7277,
      "Ġguessing": 7278,
      "Ġwarrior": 7279,
      "Ġthanking": 7280,
      "never": 7281,
      "Ġseagulls": 7282,
      "Ġfinny": 7283,
      "Ġblond": 7284,
      "Ġsternly": 7285,
      "Ġgoodies": 7286,
      "Ġlipstick": 7287,
      "Ġyoungest": 7288,
      "Ġscratching": 7289,
      "Ġknives": 7290,
      "orter": 7291,
      "Ġsprout": 7292,
      "Ġsens": 7293,
      "Ġuna": 7294,
      "Ġscrambled": 7295,
      "Ġmosquitoes": 7296,
      "Ġbeeped": 7297,
      "Ġgrat": 7298,
      "empt": 7299,
      "Ġfain": 7300,
      "Ġgasp": 7301,
      "Ġmeowing": 7302,
      "Ġwhim": 7303,
      "Ġrescuing": 7304,
      "Ġshin": 7305,
      "Åĵwho": 7306,
      "Ġnovels": 7307,
      "Ġinchworm": 7308,
      "Ġattempt": 7309,
      "Ġquestioned": 7310,
      "Ġsigning": 7311,
      "Ġbou": 7312,
      "Ġbongo": 7313,
      "Ġdripping": 7314,
      "Ġstall": 7315,
      "Ġcaw": 7316,
      "Ġbouqu": 7317,
      "pit": 7318,
      "Ġactive": 7319,
      "Ġrays": 7320,
      "Ġform": 7321,
      "Ġsnug": 7322,
      "Ġoliv": 7323,
      "Ġanticipation": 7324,
      "Ġpicnics": 7325,
      "rily": 7326,
      "dog": 7327,
      "Ġforce": 7328,
      "Ġknocking": 7329,
      "Ġresponded": 7330,
      "Ġaisle": 7331,
      "Ġresponsibility": 7332,
      "Ġfloors": 7333,
      "Ġgratitude": 7334,
      "Ġvibr": 7335,
      "Ġtires": 7336,
      "Ġsmashed": 7337,
      "Ġattacked": 7338,
      "Ġseals": 7339,
      "Ġexplains": 7340,
      "Ġdisappe": 7341,
      "Ġemerged": 7342,
      "uctor": 7343,
      "Ġobeyed": 7344,
      "Ġrely": 7345,
      "Ġdiscoveries": 7346,
      "Ġdecoration": 7347,
      "cat": 7348,
      "Ġamber": 7349,
      "covered": 7350,
      "Ġzooms": 7351,
      "Ġaeroplanes": 7352,
      "Ġding": 7353,
      "Ġcharge": 7354,
      "Ġclassmates": 7355,
      "Ġmanners": 7356,
      "Ġbadger": 7357,
      "Ġvisits": 7358,
      "Ġbrian": 7359,
      "Ġrebec": 7360,
      "Ġgirla": 7361,
      "Ġtessa": 7362,
      "Ġtwists": 7363,
      "Ġsurvive": 7364,
      "Ġzoomy": 7365,
      "Ġpeppa": 7366,
      "Ġloc": 7367,
      "munk": 7368,
      "ippers": 7369,
      "Ġchipmunk": 7370,
      "Ġruff": 7371,
      "Ġcrabby": 7372,
      "Ġmanager": 7373,
      "Ġbreaths": 7374,
      "Ġrumbling": 7375,
      "Ġjugg": 7376,
      "Ġunwra": 7377,
      "Ġramp": 7378,
      "Ġrebecca": 7379,
      "ka": 7380,
      "Ġginger": 7381,
      "ral": 7382,
      "Ġgary": 7383,
      "Ġbuckled": 7384,
      "Ġincreasing": 7385,
      "rie": 7386,
      "Ġbond": 7387,
      "Ġbrightest": 7388,
      "Ġpenelope": 7389,
      "Ġflip": 7390,
      "leta": 7391,
      "Ġmunched": 7392,
      "Ġshimmering": 7393,
      "athan": 7394,
      "Ġpurrs": 7395,
      "Ġfel": 7396,
      "Åĵgood": 7397,
      "idence": 7398,
      "quack": 7399,
      "Ġdoorbell": 7400,
      "Ġflaps": 7401,
      "Ġaliens": 7402,
      "Ġswaying": 7403,
      "Ġearned": 7404,
      "storm": 7405,
      "Ġrats": 7406,
      "ssss": 7407,
      "Ġolivia": 7408,
      "Ġmovements": 7409,
      "Ġlowered": 7410,
      "udged": 7411,
      "Ġcracks": 7412,
      "Ġmatilda": 7413,
      "ittered": 7414,
      "Ġhonking": 7415,
      "Ġargument": 7416,
      "Ġtum": 7417,
      "Ġwinding": 7418,
      "Ġdisobey": 7419,
      "flowers": 7420,
      "aret": 7421,
      "Ġcons": 7422,
      "Ġannounced": 7423,
      "Ġprevented": 7424,
      "Ġprickly": 7425,
      "nice": 7426,
      "opes": 7427,
      "put": 7428,
      "Ġroo": 7429,
      "Ġrowed": 7430,
      "Ġswitched": 7431,
      "Ġoffering": 7432,
      "Ġswap": 7433,
      "Ġdesigning": 7434,
      "Ġrobo": 7435,
      "tw": 7436,
      "too": 7437,
      "Ġtaped": 7438,
      "flies": 7439,
      "Ġposes": 7440,
      "oscope": 7441,
      "Ġisab": 7442,
      "Ġghosts": 7443,
      "Ġtoss": 7444,
      "Ġnuzzled": 7445,
      "Ġflick": 7446,
      "Ġgerms": 7447,
      "Ġashley": 7448,
      "Ġshelly": 7449,
      "Ġjobs": 7450,
      "Ġdestroying": 7451,
      "Ġswayed": 7452,
      "Ġsteth": 7453,
      "lph": 7454,
      "Ġflips": 7455,
      "Ġdeed": 7456,
      "Ġheaven": 7457,
      "va": 7458,
      "Ġlapt": 7459,
      "Ġwhoo": 7460,
      "Ġcara": 7461,
      "ats": 7462,
      "Ġcares": 7463,
      "Ġminds": 7464,
      "Ġdodged": 7465,
      "Ġjilly": 7466,
      "Ġglimmering": 7467,
      "Ġcrawls": 7468,
      "Ġwhistles": 7469,
      "Ġshines": 7470,
      "Ġgenerosity": 7471,
      "Ġobserving": 7472,
      "Ġscooters": 7473,
      "Ġsmelt": 7474,
      "Ġclosing": 7475,
      "Ġcourt": 7476,
      "for": 7477,
      "Ġcrops": 7478,
      "Ġbeautifully": 7479,
      "Ġdangers": 7480,
      "mark": 7481,
      "Ġbeating": 7482,
      "Ġexploded": 7483,
      "Ġsnaps": 7484,
      "Ġmillion": 7485,
      "Ġscolds": 7486,
      "Ġrecorder": 7487,
      "Ġcheckout": 7488,
      "Ġstamped": 7489,
      "Ġlanguages": 7490,
      "oura": 7491,
      "Ġunpacking": 7492,
      "Ġtidying": 7493,
      "Ġgroan": 7494,
      "Ġcustomer": 7495,
      "Ġcupcake": 7496,
      "vy": 7497,
      "boards": 7498,
      "Ġeliza": 7499,
      "Ġhike": 7500,
      "Ġrobbers": 7501,
      "Ġpaddling": 7502,
      "Ġtummies": 7503,
      "Ġstethoscope": 7504,
      "Ġhaven": 7505,
      "Ġthankfully": 7506,
      "Ġgracie": 7507,
      "Ġbert": 7508,
      "Ġplug": 7509,
      "Ġdrowned": 7510,
      "Ġclicked": 7511,
      "Ġelect": 7512,
      "Ġexpecting": 7513,
      "Ġdisappoint": 7514,
      "Ġlaptop": 7515,
      "lied": 7516,
      "Åĵmaybe": 7517,
      "hive": 7518,
      "Ġastronauts": 7519,
      "ggies": 7520,
      "Ġroutine": 7521,
      "ippy": 7522,
      "Ġket": 7523,
      "Ġsupplied": 7524,
      "Ġexplor": 7525,
      "mr": 7526,
      "arrr": 7527,
      "Ġveggies": 7528,
      "Ġpeggy": 7529,
      "val": 7530,
      "nded": 7531,
      "Ġscu": 7532,
      "imm": 7533,
      "Ġnora": 7534,
      "Ġstatues": 7535,
      "Ġsteering": 7536,
      "ping": 7537,
      "amy": 7538,
      "Ġdears": 7539,
      "Ġbonnie": 7540,
      "Ġbouquet": 7541,
      "Ġill": 7542,
      "Ġbeehive": 7543,
      "Ġadds": 7544,
      "Ġsculp": 7545,
      "con": 7546,
      "Ġhood": 7547,
      "Ġjenn": 7548,
      "ooh": 7549,
      "Ġparticularly": 7550,
      "Ġcocoon": 7551,
      "Ġchatted": 7552,
      "Ġpaula": 7553,
      "Ġconductor": 7554,
      "ider": 7555,
      "Ġshorts": 7556,
      "clo": 7557,
      "Ġreminds": 7558,
      "Ġgabby": 7559,
      "dolph": 7560,
      "Ġhardest": 7561,
      "Åĵbe": 7562,
      "Ġapplause": 7563,
      "lt": 7564,
      "Ġstrum": 7565,
      "Ġstretches": 7566,
      "Ġhealthier": 7567,
      "someone": 7568,
      "Ġfloats": 7569,
      "Ġmatey": 7570,
      "Ġmoma": 7571,
      "Ġscri": 7572,
      "Ġdollar": 7573,
      "Ġbunbun": 7574,
      "Ġbelle": 7575,
      "Ġwiser": 7576,
      "Ġawful": 7577,
      "Ġgoo": 7578,
      "Ġwildflowers": 7579,
      "Ġnic": 7580,
      "friend": 7581,
      "uel": 7582,
      "Ġplugged": 7583,
      "Ġswallow": 7584,
      "Ġoverhead": 7585,
      "rup": 7586,
      "Ġdino": 7587,
      "Ġriley": 7588,
      "Ġzack": 7589,
      "Ġcarla": 7590,
      "Ġbeast": 7591,
      "Ġrudolph": 7592,
      "Ġbluebird": 7593,
      "Ġbust": 7594,
      "Ġtyler": 7595,
      "Ġtraded": 7596,
      "Ġnests": 7597,
      "Ġgall": 7598,
      "Ġsquished": 7599,
      "Ġreturning": 7600,
      "Ġtests": 7601,
      "Ġweapons": 7602,
      "Ġopinions": 7603,
      "llas": 7604,
      "Ġky": 7605,
      "Ġserving": 7606,
      "Ġsprays": 7607,
      "Ġcombed": 7608,
      "his": 7609,
      "Ġcarries": 7610,
      "Ġsprinkle": 7611,
      "Ġsyrup": 7612,
      "Ġfascinating": 7613,
      "Ġwooly": 7614,
      "Ġfaint": 7615,
      "jen": 7616,
      "Ġandrew": 7617,
      "Ġsatisf": 7618,
      "Ġelectric": 7619,
      "Ġgrad": 7620,
      "Ġexperiences": 7621,
      "anced": 7622,
      "Ġumbrellas": 7623,
      "Ġlocks": 7624,
      "oy": 7625,
      "Ġfoxy": 7626,
      "Ġtrusting": 7627,
      "Ġcontainer": 7628,
      "Ġkilled": 7629,
      "Ġproviding": 7630,
      "Ġbothered": 7631,
      "Ġmidnight": 7632,
      "Ġdefeated": 7633,
      "Ġflashing": 7634,
      "Ġhiss": 7635,
      "Ġexamp": 7636,
      "Ġsets": 7637,
      "Ġapril": 7638,
      "Ġshorter": 7639,
      "Ġrosa": 7640,
      "Ġtwenty": 7641,
      "lesc": 7642,
      "ordinary": 7643,
      "Ġsculpture": 7644,
      "Ġflashed": 7645,
      "Ġtearing": 7646,
      "hold": 7647,
      "Ġchecks": 7648,
      "Ġlim": 7649,
      "rench": 7650,
      "Ġfarmers": 7651,
      "Ġtelesc": 7652,
      "Ġbounces": 7653,
      "tr": 7654,
      "Ġhotter": 7655,
      "Ġapplauding": 7656,
      "emma": 7657,
      "Ġnights": 7658,
      "Ġinches": 7659,
      "Ġflora": 7660,
      "Ġgrumbled": 7661,
      "Ġglided": 7662,
      "Ġscrub": 7663,
      "ative": 7664,
      "shap": 7665,
      "Ġburnt": 7666,
      "entr": 7667,
      "Ġconcentr": 7668,
      "fi": 7669,
      "ators": 7670,
      "Ġcubs": 7671,
      "Ġconv": 7672,
      "Ġtelescope": 7673,
      "Ġliam": 7674,
      "Ġcrystals": 7675,
      "Ġsadder": 7676,
      "Ġraising": 7677,
      "Ġmelissa": 7678,
      "Ġconfidence": 7679,
      "Ġannabelle": 7680,
      "Ġgardens": 7681,
      "Ġconvince": 7682,
      "Ġicing": 7683,
      "Ġcheated": 7684,
      "ession": 7685,
      "âĤ¬Â": 7686,
      "Ġawhile": 7687,
      "Ġmila": 7688,
      "Ġnecks": 7689,
      "Ġburns": 7690,
      "lers": 7691,
      "ock": 7692,
      "Ġodd": 7693,
      "Ġri": 7694,
      "Ġwhales": 7695,
      "Ġsoapy": 7696,
      "Ġpetting": 7697,
      "Ġvisitor": 7698,
      "âĤ¬Â¦": 7699,
      "Ġteams": 7700,
      "Ġmeows": 7701,
      "Ġmunching": 7702,
      "parable": 7703,
      "Ġchecking": 7704,
      "Ġextraordinary": 7705,
      "Ġcollapsed": 7706,
      "off": 7707,
      "molly": 7708,
      "Ġmember": 7709,
      "Ġotters": 7710,
      "ances": 7711,
      "Ġvio": 7712,
      "Ġinseparable": 7713,
      "Ġtraveling": 7714,
      "Ġsirens": 7715,
      "Ġblown": 7716,
      "Ġgrassho": 7717,
      "angle": 7718,
      "Ġdryer": 7719,
      "Ġnatu": 7720,
      "Ġforgives": 7721,
      "Ġliza": 7722,
      "Ġprizes": 7723,
      "Ġbarry": 7724,
      "Ġexample": 7725,
      "ware": 7726,
      "Ġmaj": 7727,
      "Ġtypes": 7728,
      "Ġconcer": 7729,
      "Ġborn": 7730,
      "Ġinter": 7731,
      "Ġimaginary": 7732,
      "Ġtorto": 7733,
      "hera": 7734,
      "Ġinstrument": 7735,
      "Ġlil": 7736,
      "Ġplayd": 7737,
      "Ġbehaviour": 7738,
      "billy": 7739,
      "Ġrelaxing": 7740,
      "ana": 7741,
      "Ġsingers": 7742,
      "Ġunable": 7743,
      "Ġbicycles": 7744,
      "igger": 7745,
      "Ġtortoise": 7746,
      "Ġwaded": 7747,
      "Ġchin": 7748,
      "Ġwaters": 7749,
      "boys": 7750,
      "Ġcompan": 7751,
      "Ġhunting": 7752,
      "Ġmamma": 7753,
      "Ġsprang": 7754,
      "shaped": 7755,
      "Ġbom": 7756,
      "Ġmommies": 7757,
      "Ġupside": 7758,
      "lets": 7759,
      "Ġpills": 7760,
      "Ġsalon": 7761,
      "Ġpeeped": 7762,
      "Ġbam": 7763,
      "adabra": 7764,
      "Ġdock": 7765,
      "Ġexploration": 7766,
      "Ġwilly": 7767,
      "Ġopportunity": 7768,
      "Ġlongest": 7769,
      "Ġrufus": 7770,
      "Ġattitude": 7771,
      "Ġlenny": 7772,
      "Ġinvent": 7773,
      "Ġmona": 7774,
      "Ġexpression": 7775,
      "Ġdiscoura": 7776,
      "Ġconquered": 7777,
      "Ġdistracted": 7778,
      "Ġhamm": 7779,
      "cadabra": 7780,
      "Ġgradually": 7781,
      "Ġbride": 7782,
      "Ġrealizes": 7783,
      "Ġpinching": 7784,
      "Ġcheaper": 7785,
      "Ġdiscouraged": 7786,
      "Ġdeserved": 7787,
      "Ġtrigger": 7788,
      "Ġenem": 7789,
      "Ġflowing": 7790,
      "Ġcoolest": 7791,
      "Ġenemies": 7792,
      "Ġengines": 7793,
      "Ġsweaters": 7794,
      "Ġwriggled": 7795,
      "Ġsometime": 7796,
      "open": 7797,
      "Ġclearly": 7798,
      "Ġgulp": 7799,
      "Ġclip": 7800,
      "Ġenvelopes": 7801,
      "Ġjose": 7802,
      "getic": 7803,
      "Ġjody": 7804,
      "roll": 7805,
      "shadow": 7806,
      "Ġflock": 7807,
      "sally": 7808,
      "Ġ5": 7809,
      "Ġburger": 7810,
      "Ġrows": 7811,
      "Ġswimmer": 7812,
      "Ġgrasshopper": 7813,
      "sarah": 7814,
      "Ġcountries": 7815,
      "Ġoverwhe": 7816,
      "Ġcompete": 7817,
      "Ġoverwhel": 7818,
      "Ġtips": 7819,
      "ction": 7820,
      "Ġyawning": 7821,
      "Ġreappeared": 7822,
      "bur": 7823,
      "Ġchatting": 7824,
      "Ġzee": 7825,
      "Ġpasses": 7826,
      "over": 7827,
      "Ġsurely": 7828,
      "Ġglittered": 7829,
      "Ġquacking": 7830,
      "mar": 7831,
      "Ġcrocodiles": 7832,
      "Ġmajest": 7833,
      "Ġdoz": 7834,
      "Ġgallop": 7835,
      "balls": 7836,
      "Ġmiller": 7837,
      "Ġoliver": 7838,
      "Ġbeetles": 7839,
      "ouched": 7840,
      "Ġcafe": 7841,
      "Ġability": 7842,
      "Ġmarking": 7843,
      "stand": 7844,
      "Ġjennie": 7845,
      "Ġspilling": 7846,
      "Ġannoying": 7847,
      "Ġmattered": 7848,
      "Ġsincere": 7849,
      "Ġdetails": 7850,
      "Ġenjoyable": 7851,
      "Ġstrips": 7852,
      "rob": 7853,
      "Ġnoticing": 7854,
      "Ġcheerfully": 7855,
      "Ġhaircuts": 7856,
      "Ġcommon": 7857,
      "icate": 7858,
      "Ġfond": 7859,
      "Ġcrowded": 7860,
      "Ġwhined": 7861,
      "Ġcheat": 7862,
      "Ġmartin": 7863,
      "Ġapproach": 7864,
      "Ġtreas": 7865,
      "Ġstorms": 7866,
      "Ġhangers": 7867,
      "Ġthicker": 7868,
      "dr": 7869,
      "Ġuniforms": 7870,
      "Ġsoundly": 7871,
      "Ġweighing": 7872,
      "Ġbubbly": 7873,
      "Ġcompanion": 7874,
      "Ġrepairman": 7875,
      "Ġnatural": 7876,
      "str": 7877,
      "Ġskies": 7878,
      "prin": 7879,
      "Ġjanet": 7880,
      "rey": 7881,
      "Ġjoanna": 7882,
      "Ġstur": 7883,
      "Ġprod": 7884,
      "Ġformed": 7885,
      "Ġabo": 7886,
      "Ġbecomes": 7887,
      "Ġvibrant": 7888,
      "Ġoutfits": 7889,
      "Ġairplanes": 7890,
      "Ġwashes": 7891,
      "Ġtreasured": 7892,
      "rick": 7893,
      "Ġdev": 7894,
      "Ġaboard": 7895,
      "Ġjoyfully": 7896,
      "Ġnewspapers": 7897,
      "Ġmiracle": 7898,
      "Ġclau": 7899,
      "Ġbud": 7900,
      "Ġmoat": 7901,
      "Ġmoonlight": 7902,
      "Ġviolet": 7903,
      "Ġstripe": 7904,
      "Ġoccasion": 7905,
      "Ġjasm": 7906,
      "Ġsmoking": 7907,
      "Ġpepperoni": 7908,
      "Ġshallow": 7909,
      "Ġbund": 7910,
      "vi": 7911,
      "Ġbacks": 7912,
      "Ġpleas": 7913,
      "Ġswirls": 7914,
      "Åĵyay": 7915,
      "Ġscrun": 7916,
      "Ġcowboys": 7917,
      "Ġcommun": 7918,
      "Ġchill": 7919,
      "Ġcheating": 7920,
      "Ġhabit": 7921,
      "Ġclut": 7922,
      "Ġleah": 7923,
      "Ġhummed": 7924,
      "Ġfreezing": 7925,
      "danger": 7926,
      "Ġsneezes": 7927,
      "Ġmugs": 7928,
      "Ġclue": 7929,
      "scot": 7930,
      "Ġfluff": 7931,
      "Ġmesses": 7932,
      "Ġerase": 7933,
      "anytime": 7934,
      "Ġblonde": 7935,
      "Ġjasmine": 7936,
      "Ġgrump": 7937,
      "Ġslee": 7938,
      "hole": 7939,
      "Ġmodels": 7940,
      "Ġscattering": 7941,
      "Ġsatisfaction": 7942,
      "Ġlump": 7943,
      "Ġcalmer": 7944,
      "Ġcompliment": 7945,
      "Ġbulbs": 7946,
      "Ġsquinted": 7947,
      "zoom": 7948,
      "Ġsuccessfully": 7949,
      "hew": 7950,
      "ounce": 7951,
      "Ġblushed": 7952,
      "Ġsipped": 7953,
      "venir": 7954,
      "Ġforeshadow": 7955,
      "neys": 7956,
      "Ġsouvenir": 7957,
      "achoo": 7958,
      "Ġcells": 7959,
      "Ġsituations": 7960,
      "Ġleaking": 7961,
      "Ġpositive": 7962,
      "mel": 7963,
      "fluffy": 7964,
      "Ġcoughed": 7965,
      "Ġmeatballs": 7966,
      "',": 7967,
      "Ġwan": 7968,
      "Ġyumm": 7969,
      "Ġglittery": 7970,
      "Ġexplaining": 7971,
      "Ġsmartest": 7972,
      "Ġbruises": 7973,
      "bank": 7974,
      "Ġbas": 7975,
      "Ġjohny": 7976,
      "Ġank": 7977,
      "Ġanswering": 7978,
      "Ġscenery": 7979,
      "Ġtickling": 7980,
      "Ġweighs": 7981,
      "Ġavery": 7982,
      "Ġpressing": 7983,
      "Ġlocal": 7984,
      "Ġfris": 7985,
      "Ġrewards": 7986,
      "Ġalf": 7987,
      "immered": 7988,
      "Ġcaterpillars": 7989,
      "Ġburgers": 7990,
      "belt": 7991,
      "Ġscares": 7992,
      "Ġunfair": 7993,
      "joe": 7994,
      "ift": 7995,
      "Ġtraps": 7996,
      "chup": 7997,
      "Ġtalents": 7998,
      "Ġcris": 7999,
      "Ġhundreds": 8000,
      "once": 8001,
      "Ġshattered": 8002,
      "Ġpilots": 8003,
      "Ġrewarding": 8004,
      "Ġwelcoming": 8005,
      "jimmy": 8006,
      "Ġpossib": 8007,
      "Ġwanna": 8008,
      "Ġslapping": 8009,
      "Ġrubbish": 8010,
      "Ġteap": 8011,
      "Ġbound": 8012,
      "Ġhisses": 8013,
      "Ġroast": 8014,
      "Ġcleans": 8015,
      "Ġstuffing": 8016,
      "Ġpantry": 8017,
      "Ġbamboo": 8018,
      "Ġhopper": 8019,
      "Ġcrust": 8020,
      "Ġrowing": 8021,
      "grandpa": 8022,
      "Ġscow": 8023,
      "honey": 8024,
      "Ġcathy": 8025,
      "Ġfireflies": 8026,
      "Ġbinoc": 8027,
      "Ġpractised": 8028,
      "Ġketchup": 8029,
      "Ġdigs": 8030,
      "Ġteapot": 8031,
      "Ġdu": 8032,
      "Ġforts": 8033,
      "Ġintently": 8034,
      "Ġsturdy": 8035,
      "Ġhorri": 8036,
      "Ġballer": 8037,
      "Ġminded": 8038,
      "Ġangrily": 8039,
      "scotch": 8040,
      "Ġchickie": 8041,
      "Ġpipes": 8042,
      "Ġgroaned": 8043,
      "Ġhootie": 8044,
      "Åĵwea": 8045,
      "Ġmarveled": 8046,
      "Ġrebu": 8047,
      "Ġribbit": 8048,
      "Ġtopp": 8049,
      "Ġbruce": 8050,
      "Ġsteven": 8051,
      "Ġseatbelt": 8052,
      "Ġtempted": 8053,
      "amil": 8054,
      "Ġsandpit": 8055,
      "Ġfunn": 8056,
      "Ġrunner": 8057,
      "ahoy": 8058,
      "Ġunfamil": 8059,
      "Ġtunes": 8060,
      "Ġapology": 8061,
      "Ġunfamiliar": 8062,
      "Ġfinishes": 8063,
      "Ġembra": 8064,
      "Ġmeadows": 8065,
      "Ġmicrow": 8066,
      "Ġbends": 8067,
      "Ġbubbling": 8068,
      "Ġnate": 8069,
      "Ġgoodness": 8070,
      "Ġdoorstep": 8071,
      "Ġcroaked": 8072,
      "Ġpeac": 8073,
      "Ġshyly": 8074,
      "Ġbomb": 8075,
      "Ġinvites": 8076,
      "Ġnightmares": 8077,
      "Ġaston": 8078,
      "Ġtentacles": 8079,
      "Ġlookout": 8080,
      "Ġenergetic": 8081,
      "Ġmicrowave": 8082,
      "Ġsweeter": 8083,
      "Ġjets": 8084,
      "Ġbrad": 8085,
      "!'.": 8086,
      "Ġspoiling": 8087,
      "Ġfelix": 8088,
      "py": 8089,
      "Ġtugging": 8090,
      "Ġrhino": 8091,
      "Ġoverwhelmed": 8092,
      "Ġmumma": 8093,
      "Ġstepping": 8094,
      "Ġchews": 8095,
      "Ġexchange": 8096,
      "aming": 8097,
      "Ġacts": 8098,
      "gar": 8099,
      "rupt": 8100,
      "Ġripp": 8101,
      "Ġmessages": 8102,
      "abracadabra": 8103,
      "lish": 8104,
      "Ġcages": 8105,
      "Ġwatermel": 8106,
      "Ġshrank": 8107,
      "omise": 8108,
      "Ġmoons": 8109,
      "Ġhopscotch": 8110,
      "Ġprotection": 8111,
      "Ġstrolled": 8112,
      "Ġboards": 8113,
      "Ġpopsic": 8114,
      "Ġaid": 8115,
      "Ġric": 8116,
      "Ġplayhouse": 8117,
      "Ġchopping": 8118,
      "Ġmelons": 8119,
      "Ġhesitation": 8120,
      "Ġ4": 8121,
      "Ġunderwater": 8122,
      "Ġfifi": 8123,
      "Ġdefeat": 8124,
      "Ġconsider": 8125,
      "ulars": 8126,
      "Ġobst": 8127,
      "Ġgasps": 8128,
      "Ġloyalty": 8129,
      "Ġdou": 8130,
      "scar": 8131,
      "Ġattend": 8132,
      "Ġcherish": 8133,
      "baa": 8134,
      "hurry": 8135,
      "Ġfade": 8136,
      "Ġnor": 8137,
      "Ġguards": 8138,
      "Ġmayor": 8139,
      "Ġteamwork": 8140,
      "Ġguardian": 8141,
      "Ġdemanding": 8142,
      "Ġbinoculars": 8143,
      "Ġstew": 8144,
      "Ġcertainly": 8145,
      "Ġballerina": 8146,
      "remy": 8147,
      "Ġsection": 8148,
      "Ġalley": 8149,
      "Ġjosie": 8150,
      "Ġjacka": 8151,
      "Ġpouch": 8152,
      "Ġcrouched": 8153,
      "Ġshares": 8154,
      "Ġrandy": 8155,
      "Ġslithered": 8156,
      "Ġdisappointment": 8157,
      "Ġgemma": 8158,
      "chief": 8159,
      "iving": 8160,
      "Ġrealizing": 8161,
      "Ġdifferently": 8162,
      "Ġpetal": 8163,
      "Ġraking": 8164,
      "book": 8165,
      "ena": 8166,
      "Ġjing": 8167,
      "Ġsnar": 8168,
      "moo": 8169,
      "Ġpounced": 8170,
      "Ġcarol": 8171,
      "Åĵhow": 8172,
      "rrrr": 8173,
      "anie": 8174,
      "Ġrips": 8175,
      "Ġ''": 8176,
      "Ġtransformed": 8177,
      "Ġrecess": 8178,
      "Ġmeaning": 8179,
      "Ġcrickets": 8180,
      "soon": 8181,
      "Ġfist": 8182,
      "Ġprog": 8183,
      "Ġriverbank": 8184,
      "Ġsweetly": 8185,
      "Ġbuggy": 8186,
      "Ġlanding": 8187,
      "Ġtickles": 8188,
      "Ġunwrapped": 8189,
      "try": 8190,
      "Ġsqueezes": 8191,
      "first": 8192,
      "Ġthie": 8193,
      "ki": 8194,
      "Ġfries": 8195,
      "iciest": 8196,
      "Ġstores": 8197,
      "Ġpeacock": 8198,
      "Ġoscar": 8199,
      "Ġicky": 8200,
      "Ġamused": 8201,
      "Ġpatrick": 8202,
      "Ġminnie": 8203,
      "Ġplaydate": 8204,
      "Ġrack": 8205,
      "Ġankle": 8206,
      "Ġping": 8207,
      "Ġcluck": 8208,
      "Ġpokes": 8209,
      "Ġerupt": 8210,
      "Ġallie": 8211,
      "owing": 8212,
      "Ġarrest": 8213,
      "Ġcherished": 8214,
      "tweet": 8215,
      "Ġms": 8216,
      "cycles": 8217,
      "Ġsandra": 8218,
      "Ġwhimpered": 8219,
      "ial": 8220,
      "oma": 8221,
      "Ġrosy": 8222,
      "Ġnapped": 8223,
      "Ġsnorted": 8224,
      "solut": 8225,
      ",'": 8226,
      "Ġactor": 8227,
      "Ġthrill": 8228,
      "Ġchoosing": 8229,
      "Ġjudges": 8230,
      "Ġcreak": 8231,
      "prints": 8232,
      "elle": 8233,
      "Ġtot": 8234,
      "Ġclaus": 8235,
      "Ġravi": 8236,
      "Ġcurrent": 8237,
      "Ġthieves": 8238,
      "gets": 8239,
      "Ġlulla": 8240,
      "Ġmysteries": 8241,
      "Ġsacks": 8242,
      "Ġblades": 8243,
      "Ġcentre": 8244,
      "Ġkinder": 8245,
      "Ġthunderstorm": 8246,
      "Ġelectricity": 8247,
      "which": 8248,
      "Ġsnapping": 8249,
      "ulf": 8250,
      "Ġshoel": 8251,
      "iring": 8252,
      "Ġmarley": 8253,
      "Ġwatermelon": 8254,
      "Ġgates": 8255,
      "Ġgroups": 8256,
      "Ġinjured": 8257,
      "jane": 8258,
      "Ġstyles": 8259,
      "Ġlumberjack": 8260,
      "emy": 8261,
      "Ġcreams": 8262,
      "Ġtrusty": 8263,
      "Ġleans": 8264,
      "belie": 8265,
      "Ġhalfway": 8266,
      "Ġintelligence": 8267,
      "Ġtemptation": 8268,
      "Ġstanley": 8269,
      "Ġtant": 8270,
      "Ġheels": 8271,
      "Ġbamb": 8272,
      "Ġwhir": 8273,
      "Ġtownsp": 8274,
      "Ġfrustration": 8275,
      "Ġstructures": 8276,
      "Ġwilbur": 8277,
      "gr": 8278,
      "Ġboil": 8279,
      "Ġenemy": 8280,
      "Ġkeyhole": 8281,
      "Ġseasons": 8282,
      "Ġcondition": 8283,
      "Ġrita": 8284,
      "chant": 8285,
      "its": 8286,
      "Ġspare": 8287,
      "Ġcamel": 8288,
      "lyn": 8289,
      "benny": 8290,
      "Ġkneeling": 8291,
      "lor": 8292,
      "othy": 8293,
      "rum": 8294,
      "Ġscene": 8295,
      "inct": 8296,
      "ering": 8297,
      "uction": 8298,
      "Ġsupporting": 8299,
      "sers": 8300,
      "ites": 8301,
      "Ġtrading": 8302,
      "Ġpinchy": 8303,
      "Ġcomputers": 8304,
      "Ġisna": 8305,
      "Ġspears": 8306,
      "Ġbanging": 8307,
      "Ġastonished": 8308,
      "Ġcharm": 8309,
      "Ġaller": 8310,
      "Ġswimsuits": 8311,
      "Ġgw": 8312,
      "Ġstun": 8313,
      "Ġsleeps": 8314,
      "Ġwiggles": 8315,
      "Ġbenches": 8316,
      "Ġbambi": 8317,
      "oured": 8318,
      "Ġweaker": 8319,
      "Ġreversing": 8320,
      "Ġfoggy": 8321,
      "Ġtantrum": 8322,
      "Ġtextures": 8323,
      "Ġrebuild": 8324,
      "Ġtill": 8325,
      "Ġlevel": 8326,
      "Ġlevers": 8327,
      "Ġplo": 8328,
      "Ġalongside": 8329,
      "Ġcommunicate": 8330,
      "Ġhissing": 8331,
      "Ġmagically": 8332,
      "Ġnicest": 8333,
      "eople": 8334,
      "Ġexperiment": 8335,
      "Ġwiggling": 8336,
      "Ġtownspeople": 8337,
      "Ġtimid": 8338,
      "Ġlush": 8339,
      "Ġsid": 8340,
      "Ġjodie": 8341,
      "Ġluckiest": 8342,
      "Ġkangaroos": 8343,
      "Ġshinier": 8344,
      "Ġdart": 8345,
      "Ġunless": 8346,
      "Ġtops": 8347,
      "Ġkenny": 8348,
      "Ġjonathan": 8349,
      "Ġwhoosh": 8350,
      "enna": 8351,
      "Ġshh": 8352,
      "Ġprank": 8353,
      "Ġthumbs": 8354,
      "Ġwarmed": 8355,
      "Ġmotorcycles": 8356,
      "Ġpedaling": 8357,
      "jill": 8358,
      "Ġglisten": 8359,
      "Ġbloss": 8360,
      "Ġtrusts": 8361,
      "Ġsoftened": 8362,
      "Ġskirts": 8363,
      "Ġcops": 8364,
      "Ġmagnifying": 8365,
      "Ġlizards": 8366,
      "Ġquarreled": 8367,
      "Ġdisappearing": 8368,
      "Ġmooed": 8369,
      "jump": 8370,
      "Ġziggy": 8371,
      "Ġharvest": 8372,
      "got": 8373,
      "Ġwhine": 8374,
      "Ġtoothbrush": 8375,
      "Ġmunch": 8376,
      "oe": 8377,
      "Ġwriter": 8378,
      "guard": 8379,
      "Ġkyle": 8380,
      "\"!": 8381,
      "Ġboiling": 8382,
      "Ġworst": 8383,
      "Ġwolves": 8384,
      "Ġcontinuing": 8385,
      "Ġknobs": 8386,
      "Ġguarding": 8387,
      "Ġlaun": 8388,
      "ormation": 8389,
      "Ġgroom": 8390,
      "Ġpoisonous": 8391,
      "Ġconcerned": 8392,
      "Ġjes": 8393,
      "solutely": 8394,
      "mie": 8395,
      "Ġjeremy": 8396,
      "deal": 8397,
      "Ġfetched": 8398,
      "yl": 8399,
      "Ġcompared": 8400,
      "Ġbowing": 8401,
      "Ġrevealing": 8402,
      "Ġton": 8403,
      "rain": 8404,
      "Ġcreep": 8405,
      "Ġbushy": 8406,
      "edic": 8407,
      "ics": 8408,
      "Ġpeak": 8409,
      "Ġimproving": 8410,
      "may": 8411,
      "Ġoldest": 8412,
      "Ġinstinct": 8413,
      "Ġlullaby": 8414,
      "car": 8415,
      "Åĵthanks": 8416,
      "Ġdoesna": 8417,
      "Ġbold": 8418,
      "Ġcuddling": 8419,
      "Ġhank": 8420,
      "Ġsurprisingly": 8421,
      "cra": 8422,
      "Åĵwelcome": 8423,
      "Ġsensation": 8424,
      "Ġalan": 8425,
      "Ġcanv": 8426,
      "teddy": 8427,
      "Ġcupboards": 8428,
      "Ġpopping": 8429,
      "Ġcolin": 8430,
      "barrow": 8431,
      "Ġwheelbarrow": 8432,
      "Ġtink": 8433,
      "isie": 8434,
      "Ġlibby": 8435,
      "Ġharmony": 8436,
      "Ġdesperate": 8437,
      "sey": 8438,
      "Ġowns": 8439,
      "phew": 8440,
      "ala": 8441,
      "flake": 8442,
      "Ġembarrassing": 8443,
      "Ġbuster": 8444,
      "Ġbrains": 8445,
      "Ġdrying": 8446,
      "Ġsoothing": 8447,
      "Ġwrench": 8448,
      "Ġlucas": 8449,
      "Ġcooled": 8450,
      "Ġjourneys": 8451,
      "Ġcroak": 8452,
      "hmm": 8453,
      "Ġwhirl": 8454,
      "Ġsnowflake": 8455,
      "Ġpedall": 8456,
      "Ġallowing": 8457,
      "Ġmaisie": 8458,
      "urity": 8459,
      "Ġaloud": 8460,
      "Ġblade": 8461,
      "Ġshoots": 8462,
      "cri": 8463,
      "Ġnarrow": 8464,
      "Ġrealise": 8465,
      "ibly": 8466,
      "Ġfoam": 8467,
      "Ġrepairing": 8468,
      "Ġsneaks": 8469,
      "Ġnibbles": 8470,
      "dia": 8471,
      "Ġfacing": 8472,
      "does": 8473,
      "Ġcourageous": 8474,
      "Ġinvitations": 8475,
      "Ġlava": 8476,
      "Ġcracker": 8477,
      "Ġthumper": 8478,
      "Ġcoughing": 8479,
      "Ġspik": 8480,
      "ifer": 8481,
      "Ġmindful": 8482,
      "Ġfacts": 8483,
      "Ġcanvas": 8484,
      "Ġsusp": 8485,
      "Ġ--": 8486,
      "Ġpuppets": 8487,
      "Ġheavily": 8488,
      "Ġsobbing": 8489,
      "Ġsooner": 8490,
      "Ġdeeply": 8491,
      "Ġlarger": 8492,
      "Ġblooms": 8493,
      "Ġproperty": 8494,
      "Ġspiky": 8495,
      "Ġfer": 8496,
      "Ġria": 8497,
      "Ġowls": 8498,
      "Ġdashed": 8499,
      "Ġgret": 8500,
      "icious": 8501,
      "Ġchatter": 8502,
      "Ġsecurity": 8503,
      "cutter": 8504,
      "Ġsleds": 8505,
      "Ġnearer": 8506,
      "Ġdisaster": 8507,
      "Ġmustered": 8508,
      "Ġangrier": 8509,
      "Ġgwen": 8510,
      "Ġmast": 8511,
      "Ġquilt": 8512,
      "Ġmedals": 8513,
      "Ġcosts": 8514,
      "Ġzips": 8515,
      "Ġhonks": 8516,
      "Ġjennifer": 8517,
      "ahh": 8518,
      "Ġdepart": 8519,
      "Ġeld": 8520,
      "Ġcaps": 8521,
      "Ġappe": 8522,
      "Ġknit": 8523,
      "Ġcompleting": 8524,
      "uno": 8525,
      "Ġmold": 8526,
      "Ġcousins": 8527,
      "Ġhollow": 8528,
      "Ġskate": 8529,
      "Ġchewy": 8530,
      "Ġshrugs": 8531,
      "vering": 8532,
      "Ġscoops": 8533,
      "Ġcircled": 8534,
      "bed": 8535,
      "Åĵthere": 8536,
      "Ġyuck": 8537,
      "thew": 8538,
      "Ġrepeats": 8539,
      "Ġtoto": 8540,
      "Ġhips": 8541,
      "Ġloudest": 8542,
      "Ġthrone": 8543,
      "Ġcontented": 8544,
      "Ġwaking": 8545,
      "Ġwarmest": 8546,
      "Ġcutter": 8547,
      "Ġhangs": 8548,
      "Ġkayaking": 8549,
      "Ġflashes": 8550,
      "pan": 8551,
      "otion": 8552,
      "Ġwhipped": 8553,
      "Ġwinds": 8554,
      "Ġcopied": 8555,
      "Ġattempts": 8556,
      "Ġpickles": 8557,
      "Ġwoodcutter": 8558,
      "Ġincredibly": 8559,
      "Ġalligators": 8560,
      "Ġcooperate": 8561,
      "believe": 8562,
      "Ġplopped": 8563,
      "Ġnecess": 8564,
      "zing": 8565,
      "colored": 8566,
      "gre": 8567,
      "ili": 8568,
      "antern": 8569,
      "Ġminding": 8570,
      "ther": 8571,
      "Åĵwould": 8572,
      "Ġbuilder": 8573,
      "Ġpreschool": 8574,
      "nothing": 8575,
      "Ġpose": 8576,
      "Ġfights": 8577,
      "hop": 8578,
      "Ġstinky": 8579,
      "aging": 8580,
      "Ġgratefully": 8581,
      "Ġfootprints": 8582,
      "Ġspringing": 8583,
      "Ġachievement": 8584,
      "Ġlunchtime": 8585,
      "Ġpleasant": 8586,
      "hand": 8587,
      "Ġscratchy": 8588,
      "Ġflooded": 8589,
      "Ġcalming": 8590,
      "Ġdozed": 8591,
      "Ġallowance": 8592,
      "mary": 8593,
      "Ġglared": 8594,
      "Ġrails": 8595,
      "Ġhuddled": 8596,
      "Ġhooves": 8597,
      "Ġtale": 8598,
      "Ġmatthew": 8599,
      "Ġtheat": 8600,
      "ashes": 8601,
      "Ġjuiciest": 8602,
      "Ġenchant": 8603,
      "Ġcompr": 8604,
      "Ġticking": 8605,
      "Ġtippy": 8606,
      "Ġcig": 8607,
      "Ġbruno": 8608,
      "Ġratty": 8609,
      "Ġquacks": 8610,
      "Ġsoda": 8611,
      "Ġaroma": 8612,
      "tled": 8613,
      "utter": 8614,
      "Ġspringtime": 8615,
      "Ġdesperately": 8616,
      "Ġswapped": 8617,
      "Ġmovement": 8618,
      "Ġmisty": 8619,
      "only": 8620,
      "Ġabsolutely": 8621,
      "Ġhatched": 8622,
      "Ġbellies": 8623,
      "Ġseriously": 8624,
      "Ġpersistence": 8625,
      "Ġostriches": 8626,
      "Ġglistening": 8627,
      "Ġpurch": 8628,
      "Ġracer": 8629,
      "Ġstrokes": 8630,
      "Ġbooth": 8631,
      "Ġlifeguard": 8632,
      "Ġcigaret": 8633,
      "Ġshave": 8634,
      "Ġspeaks": 8635,
      "Ġchallenges": 8636,
      "Ġrobe": 8637,
      "Ġjohna": 8638,
      "Ġtheatre": 8639,
      "Ġwebs": 8640,
      "Ġindo": 8641,
      "Ġclare": 8642,
      "Ġhooks": 8643,
      "Ġbabys": 8644,
      "Ġmissy": 8645,
      "Ġloads": 8646,
      "Ġinterrupt": 8647,
      "Ġpossibilities": 8648,
      "inda": 8649,
      "Ġadmit": 8650,
      "Ġgogg": 8651,
      "ths": 8652,
      "Ġoceans": 8653,
      "Ġfreya": 8654,
      "Ġwhether": 8655,
      "Ġbats": 8656,
      "iments": 8657,
      "leys": 8658,
      "Ġron": 8659,
      "Ġstalk": 8660,
      "Ġglanced": 8661,
      "Ġdaily": 8662,
      "Ġsniffled": 8663,
      "Ġbumping": 8664,
      "Ġsqueal": 8665,
      "oned": 8666,
      "Ġmagnific": 8667,
      "Ġlasted": 8668,
      "Ġcomets": 8669,
      "Ġcapture": 8670,
      "Ġgreg": 8671,
      "Ġmusicians": 8672,
      "two": 8673,
      "uries": 8674,
      "Ġlever": 8675,
      "Ġchamp": 8676,
      "Ġdoggie": 8677,
      "Åĵare": 8678,
      "Ġami": 8679,
      "Ġbathed": 8680,
      "Ġsmoothly": 8681,
      "Ġpollen": 8682,
      "Ġblamed": 8683,
      "Ġstomp": 8684,
      "Ġrinse": 8685,
      "Ġmend": 8686,
      "Ġlace": 8687,
      "Ġdeciding": 8688,
      "Ġkissing": 8689,
      "Ġcaution": 8690,
      "Ġintroducing": 8691,
      "Ġgoggles": 8692,
      "Ġscut": 8693,
      "Ġstirs": 8694,
      "Ġimaginations": 8695,
      "Ġexhi": 8696,
      "Ġchili": 8697,
      "ba": 8698,
      "Ġgummy": 8699,
      "Ġoverfl": 8700,
      "Ġvinegar": 8701,
      "Ġnicky": 8702,
      "Ġmesmerised": 8703,
      "Ġpounds": 8704,
      "Ġsquawk": 8705,
      "Ġroyal": 8706,
      "Ġwillow": 8707,
      "Ġdesks": 8708,
      "Ġstacking": 8709,
      "Ġhippos": 8710,
      "mate": 8711,
      "Ġwax": 8712,
      "Ġuncovered": 8713,
      "Ġamongst": 8714,
      "Ġstains": 8715,
      "Ġparks": 8716,
      "Ġnets": 8717,
      "Ġfolds": 8718,
      "Ġpassenger": 8719,
      "Ġplus": 8720,
      "Ġwrapper": 8721,
      "Ġspeaker": 8722,
      "Ġprogress": 8723,
      "care": 8724,
      "Ġchains": 8725,
      "Ġbabysitter": 8726,
      "Ġroamed": 8727,
      "Ġnecessary": 8728,
      "Ġmaps": 8729,
      "Ġmessed": 8730,
      "Ġcutest": 8731,
      "Ġprocess": 8732,
      "Ġpiled": 8733,
      "Ġobediently": 8734,
      "Ġexhibit": 8735,
      "Ġfulf": 8736,
      "oray": 8737,
      "ection": 8738,
      "Ġretrie": 8739,
      "Ġrecommendation": 8740,
      "Ġhatch": 8741,
      "Ġcooed": 8742,
      "Ġfuss": 8743,
      "Ġenerg": 8744,
      "Ġcarly": 8745,
      "guess": 8746,
      "Ġfooled": 8747,
      "Ġdisobeyed": 8748,
      "Ġmous": 8749,
      "Ġcoop": 8750,
      "Ġmagnificent": 8751,
      "erts": 8752,
      "Ġpecks": 8753,
      "Ġcuc": 8754,
      "Ġfiles": 8755,
      "daisy": 8756,
      "Ġundone": 8757,
      "conut": 8758,
      "Ġhoses": 8759,
      "Ġhovering": 8760,
      "Ġantenna": 8761,
      "Ġhamster": 8762,
      "Ġjoseph": 8763,
      "ann": 8764,
      "Ġsparrow": 8765,
      "Ġyummiest": 8766,
      "Ġconfus": 8767,
      "Ġshooed": 8768,
      "Ġconfusion": 8769,
      "Ġdate": 8770,
      "Ġdedic": 8771,
      "Ġsean": 8772,
      "athy": 8773,
      "Ġclubs": 8774,
      "Ġdesserts": 8775,
      "Ġallergic": 8776,
      "Ġcoconut": 8777,
      "Ġpurring": 8778,
      "Ġaprons": 8779,
      "Ġhare": 8780,
      "Ġdoves": 8781,
      "ective": 8782,
      "Ġolly": 8783,
      "Ġhadna": 8784,
      "Ġgogo": 8785,
      "bless": 8786,
      "Ġborrowing": 8787,
      "Ġdifferences": 8788,
      "Ġgulped": 8789,
      "Ġbolt": 8790,
      "Ġlaces": 8791,
      "Ġwidely": 8792,
      "Ġinstincts": 8793,
      "Ġcompromise": 8794,
      "zip": 8795,
      "Ġeve": 8796,
      "Ġswat": 8797,
      "Ġsleigh": 8798,
      "Ġgooey": 8799,
      "Ġfrisbee": 8800,
      "umed": 8801,
      "Ġtrim": 8802,
      "Ġslurp": 8803,
      "keepers": 8804,
      "Ġhandy": 8805,
      "shr": 8806,
      "Ġned": 8807,
      "Ġlif": 8808,
      "Ġkeen": 8809,
      "Ġgreatest": 8810,
      "ris": 8811,
      "Ġblur": 8812,
      "Åĵa": 8813,
      "Ġcharged": 8814,
      "Ġbundle": 8815,
      "isn": 8816,
      "Ġspan": 8817,
      "Ġuntangle": 8818,
      "Ġsilently": 8819,
      "Ġrinsed": 8820,
      "Ġarmy": 8821,
      "ppers": 8822,
      "Ġages": 8823,
      "shirt": 8824,
      "Ġhost": 8825,
      "Ġnibbling": 8826,
      "Ġroller": 8827,
      "Ġclover": 8828,
      "Ġlunchbox": 8829,
      "Ġvalleys": 8830,
      "Ġcrafts": 8831,
      "Ġrory": 8832,
      "Ġgladly": 8833,
      "Ġdrill": 8834,
      "Ġcloths": 8835,
      "Ġperformers": 8836,
      "Ġheadache": 8837,
      "Ġecho": 8838,
      "Ġtempting": 8839,
      "Ġdepths": 8840,
      "inny": 8841,
      "Ġbait": 8842,
      "elling": 8843,
      "dream": 8844,
      "Ġhalves": 8845,
      "Ġnoah": 8846,
      "Ġsnoring": 8847,
      "Ġopt": 8848,
      "Ġsquirted": 8849,
      "Ġconfidently": 8850,
      "Ġlearner": 8851,
      "Ġlaws": 8852,
      "Ġunfold": 8853,
      "Ġfay": 8854,
      "Ġvictor": 8855,
      "Ġriddle": 8856,
      "Ġchallenged": 8857,
      "Ġindoors": 8858,
      "des": 8859,
      "iana": 8860,
      "Ġpizzas": 8861,
      "playing": 8862,
      "Ġrooster": 8863,
      "Ġscre": 8864,
      "Ġbillie": 8865,
      "Ġlydia": 8866,
      "Ġdoug": 8867,
      "Ġtowns": 8868,
      "?!": 8869,
      "andel": 8870,
      "Ġrotted": 8871,
      "Ġtay": 8872,
      "imbo": 8873,
      "Ġtend": 8874,
      "Ġunicorns": 8875,
      "Ġyay": 8876,
      "Ġsoftest": 8877,
      "mon": 8878,
      "Ġscience": 8879,
      "Ġsne": 8880,
      "Ġshoelaces": 8881,
      "Ġtroll": 8882,
      "form": 8883,
      "Ġenclo": 8884,
      "Ġappearance": 8885,
      "Ġstings": 8886,
      "Åĵwill": 8887,
      "Ġgalloped": 8888,
      "Ġtoppings": 8889,
      "Ġflavour": 8890,
      "Ġtiring": 8891,
      "Ġbree": 8892,
      "itty": 8893,
      "Ġass": 8894,
      "rings": 8895,
      "Ġsteered": 8896,
      "Ġsends": 8897,
      "Ġwadd": 8898,
      "Ġboya": 8899,
      "Ġjumpy": 8900,
      "Ġmacar": 8901,
      "Ġsoul": 8902,
      "Ġsinking": 8903,
      "Ġtastiest": 8904,
      "Ġfurious": 8905,
      "Ġenjo": 8906,
      "Ġgrandad": 8907,
      "Ġautomobiles": 8908,
      "Ġenclosure": 8909,
      "fived": 8910,
      "Ġoverhe": 8911,
      "Ġenjoys": 8912,
      "idi": 8913,
      "ality": 8914,
      "ically": 8915,
      "Ġsomehow": 8916,
      "Ġdrip": 8917,
      "Ġfreely": 8918,
      "Ġfran": 8919,
      "Ġglobe": 8920,
      "Ġmacaroni": 8921,
      "Ġboiled": 8922,
      "icking": 8923,
      "Ġpeacefulness": 8924,
      "Ġpecking": 8925,
      "Ġmousy": 8926,
      "sweet": 8927,
      "Ġsca": 8928,
      "Ġladybird": 8929,
      "Ġscrubbing": 8930,
      "Ġroute": 8931,
      "Ġlilies": 8932,
      "tail": 8933,
      "Ġhovered": 8934,
      "Ġcrushed": 8935,
      "Ġdumb": 8936,
      "Ġniece": 8937,
      "Ġbiggie": 8938,
      "Ġhelicopters": 8939,
      "Ġearrings": 8940,
      "Ġwhizz": 8941,
      "Ġbrakes": 8942,
      "Ġcarton": 8943,
      "Ġstacks": 8944,
      "Ġsta": 8945,
      "Ġplumber": 8946,
      "Ġashes": 8947,
      "Ġmashed": 8948,
      "Ġhates": 8949,
      "Ġguesses": 8950,
      "Ġregularly": 8951,
      "Ġbeeping": 8952,
      "Ġscrunched": 8953,
      "Ġgorge": 8954,
      "Ġplat": 8955,
      "Ġjimbo": 8956,
      "Ġlucya": 8957,
      "working": 8958,
      "Ġrisky": 8959,
      "Ġoccasions": 8960,
      "Ġlur": 8961,
      "Ġpearls": 8962,
      "Ġwinners": 8963,
      "cloth": 8964,
      "hen": 8965,
      "Ġtheya": 8966,
      "Ġlightly": 8967,
      "Ġleaped": 8968,
      "cell": 8969,
      "Ġsnuggling": 8970,
      "Ġtia": 8971,
      "Ġshea": 8972,
      "ige": 8973,
      "Åĵgo": 8974,
      "Ġsteph": 8975,
      "Ġdepartment": 8976,
      "Ġfail": 8977,
      "Ġrestoring": 8978,
      "Ġhunger": 8979,
      "Ġdusted": 8980,
      "Ġcrunch": 8981,
      "Ġpounding": 8982,
      "Ġnations": 8983,
      "Ġtaps": 8984,
      "Ġrags": 8985,
      "Ġfeathered": 8986,
      "Ġorganised": 8987,
      "Ġshortcut": 8988,
      "Ġfashionable": 8989,
      "Ġlonel": 8990,
      "Ġgorgeous": 8991,
      "Ġrider": 8992,
      "Ġenthusiastically": 8993,
      "Ġpeeks": 8994,
      "Ġdeserves": 8995,
      "three": 8996,
      "Ġdripped": 8997,
      "Ġmischief": 8998,
      "freeze": 8999,
      "Ġbuilders": 9000,
      "Ġordering": 9001,
      "Ġstroller": 9002,
      "Ġwhines": 9003,
      "Ġscores": 9004,
      "Ġsoftness": 9005,
      "Ġhorrible": 9006,
      "Ġsly": 9007,
      "ira": 9008,
      "Ġcarefree": 9009,
      "Ġtents": 9010,
      "Ġventure": 9011,
      "Ġrods": 9012,
      "Ġslight": 9013,
      "Ġcd": 9014,
      "Åĵmummy": 9015,
      "Ġplatform": 9016,
      "Ġivy": 9017,
      "Ġfift": 9018,
      "Ġcaroline": 9019,
      "andy": 9020,
      "Ġdee": 9021,
      "Ġdescri": 9022,
      "Ġnug": 9023,
      "rap": 9024,
      "umn": 9025,
      "Ġwoken": 9026,
      "Ġphones": 9027,
      "Ġfans": 9028,
      "Ġlistener": 9029,
      "Ġalexa": 9030,
      "bly": 9031,
      "Ġsnip": 9032,
      "Ġbrightened": 9033,
      "Ġguided": 9034,
      "Ġfanc": 9035,
      "Ġbumble": 9036,
      "Ġshots": 9037,
      "Ġleng": 9038,
      "jenny": 9039,
      "Ġlantern": 9040,
      "Ġshaky": 9041,
      "Ġisla": 9042,
      "Ġmustn": 9043,
      "Ġaccess": 9044,
[...]
